{
  "version": "1.0",
  "truncation": null,
  "padding": null,
  "added_tokens": [
    {
      "id": 0,
      "special": true,
      "content": "[CLS]",
      "single_word": false,
      "lstrip": false,
      "rstrip": false,
      "normalized": false
    },
    {
      "id": 1,
      "special": true,
      "content": "[PAD]",
      "single_word": false,
      "lstrip": false,
      "rstrip": false,
      "normalized": false
    },
    {
      "id": 2,
      "special": true,
      "content": "[SEP]",
      "single_word": false,
      "lstrip": false,
      "rstrip": false,
      "normalized": false
    },
    {
      "id": 3,
      "special": true,
      "content": "[UNK]",
      "single_word": false,
      "lstrip": false,
      "rstrip": false,
      "normalized": false
    },
    {
      "id": 4,
      "special": true,
      "content": "[MASK]",
      "single_word": false,
      "lstrip": false,
      "rstrip": false,
      "normalized": false
    },
    {
      "id": 31500,
      "special": true,
      "content": "[SUBJ-PER]",
      "single_word": false,
      "lstrip": false,
      "rstrip": false,
      "normalized": false
    },
    {
      "id": 31501,
      "special": true,
      "content": "[SUBJ-ORG]",
      "single_word": false,
      "lstrip": false,
      "rstrip": false,
      "normalized": false
    },
    {
      "id": 31502,
      "special": true,
      "content": "[OBJ-PER]",
      "single_word": false,
      "lstrip": false,
      "rstrip": false,
      "normalized": false
    },
    {
      "id": 31503,
      "special": true,
      "content": "[OBJ-ORG]",
      "single_word": false,
      "lstrip": false,
      "rstrip": false,
      "normalized": false
    },
    {
      "id": 31504,
      "special": true,
      "content": "[OBJ-LOC]",
      "single_word": false,
      "lstrip": false,
      "rstrip": false,
      "normalized": false
    },
    {
      "id": 31505,
      "special": true,
      "content": "[OBJ-DAT]",
      "single_word": false,
      "lstrip": false,
      "rstrip": false,
      "normalized": false
    },
    {
      "id": 31506,
      "special": true,
      "content": "[OBJ-NOH]",
      "single_word": false,
      "lstrip": false,
      "rstrip": false,
      "normalized": false
    },
    {
      "id": 31507,
      "special": true,
      "content": "[OBJ-POH]",
      "single_word": false,
      "lstrip": false,
      "rstrip": false,
      "normalized": false
    },
    {
      "id": 31508,
      "special": true,
      "content": "[E1]",
      "single_word": false,
      "lstrip": false,
      "rstrip": false,
      "normalized": false
    },
    {
      "id": 31509,
      "special": true,
      "content": "[/E1]",
      "single_word": false,
      "lstrip": false,
      "rstrip": false,
      "normalized": false
    },
    {
      "id": 31510,
      "special": true,
      "content": "[E2]",
      "single_word": false,
      "lstrip": false,
      "rstrip": false,
      "normalized": false
    },
    {
      "id": 31511,
      "special": true,
      "content": "[/E2]",
      "single_word": false,
      "lstrip": false,
      "rstrip": false,
      "normalized": false
    },
    {
      "id": 31512,
      "special": true,
      "content": "[S:PER]",
      "single_word": false,
      "lstrip": false,
      "rstrip": false,
      "normalized": false
    },
    {
      "id": 31513,
      "special": true,
      "content": "[/S:PER]",
      "single_word": false,
      "lstrip": false,
      "rstrip": false,
      "normalized": false
    },
    {
      "id": 31514,
      "special": true,
      "content": "[S:ORG]",
      "single_word": false,
      "lstrip": false,
      "rstrip": false,
      "normalized": false
    },
    {
      "id": 31515,
      "special": true,
      "content": "[/S:ORG]",
      "single_word": false,
      "lstrip": false,
      "rstrip": false,
      "normalized": false
    },
    {
      "id": 31516,
      "special": true,
      "content": "[O:PER]",
      "single_word": false,
      "lstrip": false,
      "rstrip": false,
      "normalized": false
    },
    {
      "id": 31517,
      "special": true,
      "content": "[/O:PER]",
      "single_word": false,
      "lstrip": false,
      "rstrip": false,
      "normalized": false
    },
    {
      "id": 31518,
      "special": true,
      "content": "[O:ORG]",
      "single_word": false,
      "lstrip": false,
      "rstrip": false,
      "normalized": false
    },
    {
      "id": 31519,
      "special": true,
      "content": "[/O:ORG]",
      "single_word": false,
      "lstrip": false,
      "rstrip": false,
      "normalized": false
    },
    {
      "id": 31520,
      "special": true,
      "content": "[O:LOC]",
      "single_word": false,
      "lstrip": false,
      "rstrip": false,
      "normalized": false
    },
    {
      "id": 31521,
      "special": true,
      "content": "[/O:LOC]",
      "single_word": false,
      "lstrip": false,
      "rstrip": false,
      "normalized": false
    },
    {
      "id": 31522,
      "special": true,
      "content": "[O:DAT]",
      "single_word": false,
      "lstrip": false,
      "rstrip": false,
      "normalized": false
    },
    {
      "id": 31523,
      "special": true,
      "content": "[/O:DAT]",
      "single_word": false,
      "lstrip": false,
      "rstrip": false,
      "normalized": false
    },
    {
      "id": 31524,
      "special": true,
      "content": "[O:NOH]",
      "single_word": false,
      "lstrip": false,
      "rstrip": false,
      "normalized": false
    },
    {
      "id": 31525,
      "special": true,
      "content": "[/O:NOH]",
      "single_word": false,
      "lstrip": false,
      "rstrip": false,
      "normalized": false
    },
    {
      "id": 31526,
      "special": true,
      "content": "[O:POH]",
      "single_word": false,
      "lstrip": false,
      "rstrip": false,
      "normalized": false
    },
    {
      "id": 31527,
      "special": true,
      "content": "[/O:POH]",
      "single_word": false,
      "lstrip": false,
      "rstrip": false,
      "normalized": false
    }
  ],
  "normalizer": {
    "type": "BertNormalizer",
    "clean_text": true,
    "handle_chinese_chars": true,
    "strip_accents": null,
    "lowercase": false
  },
  "pre_tokenizer": { "type": "BertPreTokenizer" },
  "post_processor": {
    "type": "TemplateProcessing",
    "single": [
      { "SpecialToken": { "id": "[CLS]", "type_id": 0 } },
      { "Sequence": { "id": "A", "type_id": 0 } },
      { "SpecialToken": { "id": "[SEP]", "type_id": 0 } }
    ],
    "pair": [
      { "SpecialToken": { "id": "[CLS]", "type_id": 0 } },
      { "Sequence": { "id": "A", "type_id": 0 } },
      { "SpecialToken": { "id": "[SEP]", "type_id": 0 } },
      { "Sequence": { "id": "B", "type_id": 0 } },
      { "SpecialToken": { "id": "[SEP]", "type_id": 0 } }
    ],
    "special_tokens": {
      "[CLS]": { "id": "[CLS]", "ids": [0], "tokens": ["[CLS]"] },
      "[SEP]": { "id": "[SEP]", "ids": [2], "tokens": ["[SEP]"] }
    }
  },
  "decoder": { "type": "WordPiece", "prefix": "##", "cleanup": true },
  "model": {
    "type": "WordPiece",
    "unk_token": "[UNK]",
    "continuing_subword_prefix": "##",
    "max_input_chars_per_word": 100,
    "vocab": {
      "[CLS]": 0,
      "[PAD]": 1,
      "[SEP]": 2,
      "[UNK]": 3,
      "[MASK]": 4,
      "!": 5,
      "\"": 6,
      "#": 7,
      "$": 8,
      "%": 9,
      "&": 10,
      "'": 11,
      "(": 12,
      ")": 13,
      "*": 14,
      "+": 15,
      ",": 16,
      "-": 17,
      ".": 18,
      "/": 19,
      "0": 20,
      "1": 21,
      "2": 22,
      "3": 23,
      "4": 24,
      "5": 25,
      "6": 26,
      "7": 27,
      "8": 28,
      "9": 29,
      ":": 30,
      ";": 31,
      "<": 32,
      "=": 33,
      ">": 34,
      "?": 35,
      "@": 36,
      "A": 37,
      "B": 38,
      "C": 39,
      "D": 40,
      "E": 41,
      "F": 42,
      "G": 43,
      "H": 44,
      "I": 45,
      "J": 46,
      "K": 47,
      "L": 48,
      "M": 49,
      "N": 50,
      "O": 51,
      "P": 52,
      "Q": 53,
      "R": 54,
      "S": 55,
      "T": 56,
      "U": 57,
      "V": 58,
      "W": 59,
      "X": 60,
      "Y": 61,
      "Z": 62,
      "[": 63,
      "]": 64,
      "^": 65,
      "_": 66,
      "`": 67,
      "a": 68,
      "b": 69,
      "c": 70,
      "d": 71,
      "e": 72,
      "f": 73,
      "g": 74,
      "h": 75,
      "i": 76,
      "j": 77,
      "k": 78,
      "l": 79,
      "m": 80,
      "n": 81,
      "o": 82,
      "p": 83,
      "q": 84,
      "r": 85,
      "s": 86,
      "t": 87,
      "u": 88,
      "v": 89,
      "w": 90,
      "x": 91,
      "y": 92,
      "z": 93,
      "{": 94,
      "|": 95,
      "}": 96,
      "~": 97,
      "²": 98,
      "´": 99,
      "·": 100,
      "×": 101,
      "é": 102,
      "а": 103,
      "е": 104,
      "и": 105,
      "н": 106,
      "о": 107,
      "р": 108,
      "с": 109,
      "т": 110,
      "ᆞ": 111,
      "—": 112,
      "―": 113,
      "‘": 114,
      "’": 115,
      "“": 116,
      "”": 117,
      "•": 118,
      "․": 119,
      "‥": 120,
      "…": 121,
      "‧": 122,
      "※": 123,
      "℃": 124,
      "ℓ": 125,
      "Ⅰ": 126,
      "Ⅱ": 127,
      "Ⅲ": 128,
      "↑": 129,
      "→": 130,
      "∙": 131,
      "∼": 132,
      "≪": 133,
      "≫": 134,
      "⊙": 135,
      "①": 136,
      "②": 137,
      "③": 138,
      "④": 139,
      "⑤": 140,
      "⑥": 141,
      "⑦": 142,
      "─": 143,
      "━": 144,
      "│": 145,
      "■": 146,
      "□": 147,
      "▲": 148,
      "△": 149,
      "▶": 150,
      "▷": 151,
      "▼": 152,
      "◆": 153,
      "◇": 154,
      "◈": 155,
      "○": 156,
      "●": 157,
      "★": 158,
      "☆": 159,
      "☞": 160,
      "♀": 161,
      "♡": 162,
      "♥": 163,
      "✔": 164,
      "✨": 165,
      "❤": 166,
      "⠀": 167,
      "〈": 168,
      "〉": 169,
      "《": 170,
      "》": 171,
      "「": 172,
      "」": 173,
      "『": 174,
      "』": 175,
      "【": 176,
      "】": 177,
      "〔": 178,
      "〕": 179,
      "の": 180,
      "・": 181,
      "ㄱ": 182,
      "ㄴ": 183,
      "ㄷ": 184,
      "ㄹ": 185,
      "ㅁ": 186,
      "ㅂ": 187,
      "ㅅ": 188,
      "ㅇ": 189,
      "ㅈ": 190,
      "ㅋ": 191,
      "ㅌ": 192,
      "ㅎ": 193,
      "ㅏ": 194,
      "ㅜ": 195,
      "ㅠ": 196,
      "ㅡ": 197,
      "ㅣ": 198,
      "ㅤ": 199,
      "ㆍ": 200,
      "㈜": 201,
      "㎎": 202,
      "㎏": 203,
      "㎖": 204,
      "㎜": 205,
      "㎝": 206,
      "㎞": 207,
      "㎡": 208,
      "㎢": 209,
      "㎥": 210,
      "㎾": 211,
      "㏊": 212,
      "一": 213,
      "七": 214,
      "三": 215,
      "上": 216,
      "下": 217,
      "不": 218,
      "世": 219,
      "中": 220,
      "主": 221,
      "之": 222,
      "九": 223,
      "也": 224,
      "事": 225,
      "二": 226,
      "五": 227,
      "京": 228,
      "人": 229,
      "仁": 230,
      "代": 231,
      "以": 232,
      "任": 233,
      "佛": 234,
      "作": 235,
      "使": 236,
      "來": 237,
      "例": 238,
      "保": 239,
      "信": 240,
      "修": 241,
      "傳": 242,
      "債": 243,
      "元": 244,
      "先": 245,
      "光": 246,
      "入": 247,
      "內": 248,
      "全": 249,
      "八": 250,
      "公": 251,
      "共": 252,
      "兵": 253,
      "其": 254,
      "典": 255,
      "出": 256,
      "分": 257,
      "判": 258,
      "別": 259,
      "利": 260,
      "制": 261,
      "則": 262,
      "前": 263,
      "力": 264,
      "動": 265,
      "務": 266,
      "化": 267,
      "北": 268,
      "十": 269,
      "南": 270,
      "原": 271,
      "反": 272,
      "受": 273,
      "口": 274,
      "古": 275,
      "可": 276,
      "史": 277,
      "司": 278,
      "合": 279,
      "吉": 280,
      "同": 281,
      "名": 282,
      "君": 283,
      "告": 284,
      "周": 285,
      "命": 286,
      "和": 287,
      "員": 288,
      "商": 289,
      "問": 290,
      "善": 291,
      "四": 292,
      "國": 293,
      "圖": 294,
      "土": 295,
      "在": 296,
      "地": 297,
      "城": 298,
      "基": 299,
      "堂": 300,
      "報": 301,
      "場": 302,
      "士": 303,
      "外": 304,
      "多": 305,
      "大": 306,
      "天": 307,
      "太": 308,
      "夫": 309,
      "契": 310,
      "女": 311,
      "如": 312,
      "子": 313,
      "字": 314,
      "孫": 315,
      "學": 316,
      "安": 317,
      "宗": 318,
      "官": 319,
      "定": 320,
      "宮": 321,
      "害": 322,
      "家": 323,
      "富": 324,
      "實": 325,
      "寺": 326,
      "將": 327,
      "對": 328,
      "小": 329,
      "山": 330,
      "島": 331,
      "川": 332,
      "州": 333,
      "己": 334,
      "市": 335,
      "帝": 336,
      "師": 337,
      "常": 338,
      "平": 339,
      "年": 340,
      "府": 341,
      "度": 342,
      "廣": 343,
      "式": 344,
      "張": 345,
      "强": 346,
      "形": 347,
      "後": 348,
      "得": 349,
      "德": 350,
      "心": 351,
      "志": 352,
      "思": 353,
      "性": 354,
      "情": 355,
      "惡": 356,
      "想": 357,
      "意": 358,
      "愛": 359,
      "憲": 360,
      "成": 361,
      "我": 362,
      "戰": 363,
      "所": 364,
      "手": 365,
      "擧": 366,
      "支": 367,
      "政": 368,
      "故": 369,
      "效": 370,
      "敎": 371,
      "數": 372,
      "文": 373,
      "新": 374,
      "方": 375,
      "於": 376,
      "族": 377,
      "日": 378,
      "明": 379,
      "春": 380,
      "是": 381,
      "時": 382,
      "曰": 383,
      "書": 384,
      "會": 385,
      "月": 386,
      "有": 387,
      "朝": 388,
      "期": 389,
      "木": 390,
      "未": 391,
      "本": 392,
      "朴": 393,
      "村": 394,
      "東": 395,
      "林": 396,
      "株": 397,
      "條": 398,
      "業": 399,
      "機": 400,
      "權": 401,
      "歌": 402,
      "正": 403,
      "此": 404,
      "武": 405,
      "死": 406,
      "母": 407,
      "氏": 408,
      "民": 409,
      "氣": 410,
      "水": 411,
      "求": 412,
      "江": 413,
      "決": 414,
      "河": 415,
      "治": 416,
      "法": 417,
      "海": 418,
      "淸": 419,
      "漢": 420,
      "濟": 421,
      "火": 422,
      "無": 423,
      "然": 424,
      "爲": 425,
      "父": 426,
      "物": 427,
      "獨": 428,
      "王": 429,
      "現": 430,
      "理": 431,
      "生": 432,
      "産": 433,
      "用": 434,
      "田": 435,
      "由": 436,
      "甲": 437,
      "男": 438,
      "界": 439,
      "異": 440,
      "當": 441,
      "發": 442,
      "白": 443,
      "百": 444,
      "的": 445,
      "相": 446,
      "眞": 447,
      "知": 448,
      "石": 449,
      "硏": 450,
      "社": 451,
      "祖": 452,
      "神": 453,
      "福": 454,
      "禮": 455,
      "私": 456,
      "究": 457,
      "空": 458,
      "立": 459,
      "章": 460,
      "第": 461,
      "節": 462,
      "約": 463,
      "統": 464,
      "經": 465,
      "美": 466,
      "義": 467,
      "者": 468,
      "而": 469,
      "聖": 470,
      "能": 471,
      "臣": 472,
      "自": 473,
      "至": 474,
      "與": 475,
      "色": 476,
      "花": 477,
      "英": 478,
      "華": 479,
      "萬": 480,
      "處": 481,
      "行": 482,
      "表": 483,
      "裁": 484,
      "西": 485,
      "要": 486,
      "見": 487,
      "規": 488,
      "親": 489,
      "觀": 490,
      "解": 491,
      "言": 492,
      "記": 493,
      "註": 494,
      "詩": 495,
      "語": 496,
      "說": 497,
      "論": 498,
      "證": 499,
      "議": 500,
      "資": 501,
      "身": 502,
      "車": 503,
      "軍": 504,
      "近": 505,
      "通": 506,
      "運": 507,
      "過": 508,
      "道": 509,
      "選": 510,
      "郞": 511,
      "部": 512,
      "都": 513,
      "鄭": 514,
      "重": 515,
      "野": 516,
      "金": 517,
      "銀": 518,
      "錄": 519,
      "長": 520,
      "門": 521,
      "開": 522,
      "間": 523,
      "關": 524,
      "限": 525,
      "院": 526,
      "陽": 527,
      "集": 528,
      "雲": 529,
      "靑": 530,
      "非": 531,
      "面": 532,
      "韓": 533,
      "風": 534,
      "食": 535,
      "馬": 536,
      "體": 537,
      "高": 538,
      "鮮": 539,
      "黃": 540,
      "黨": 541,
      "龍": 542,
      "가": 543,
      "각": 544,
      "간": 545,
      "갇": 546,
      "갈": 547,
      "감": 548,
      "갑": 549,
      "값": 550,
      "갓": 551,
      "갔": 552,
      "강": 553,
      "갖": 554,
      "같": 555,
      "갚": 556,
      "갛": 557,
      "개": 558,
      "객": 559,
      "갠": 560,
      "갤": 561,
      "갯": 562,
      "갱": 563,
      "갸": 564,
      "걀": 565,
      "걍": 566,
      "걔": 567,
      "거": 568,
      "걱": 569,
      "건": 570,
      "걷": 571,
      "걸": 572,
      "검": 573,
      "겁": 574,
      "것": 575,
      "겄": 576,
      "겉": 577,
      "게": 578,
      "겐": 579,
      "겔": 580,
      "겟": 581,
      "겠": 582,
      "겨": 583,
      "격": 584,
      "겪": 585,
      "견": 586,
      "결": 587,
      "겸": 588,
      "겹": 589,
      "겼": 590,
      "경": 591,
      "곁": 592,
      "계": 593,
      "고": 594,
      "곡": 595,
      "곤": 596,
      "곧": 597,
      "골": 598,
      "곰": 599,
      "곱": 600,
      "곳": 601,
      "공": 602,
      "곶": 603,
      "과": 604,
      "곽": 605,
      "관": 606,
      "괄": 607,
      "괌": 608,
      "광": 609,
      "괘": 610,
      "괜": 611,
      "괴": 612,
      "굉": 613,
      "교": 614,
      "구": 615,
      "국": 616,
      "군": 617,
      "굳": 618,
      "굴": 619,
      "굵": 620,
      "굶": 621,
      "굽": 622,
      "굿": 623,
      "궁": 624,
      "궂": 625,
      "궈": 626,
      "권": 627,
      "궐": 628,
      "궤": 629,
      "귀": 630,
      "귄": 631,
      "귓": 632,
      "규": 633,
      "균": 634,
      "귤": 635,
      "그": 636,
      "극": 637,
      "근": 638,
      "글": 639,
      "긁": 640,
      "금": 641,
      "급": 642,
      "긋": 643,
      "긍": 644,
      "기": 645,
      "긴": 646,
      "길": 647,
      "김": 648,
      "깁": 649,
      "깃": 650,
      "깅": 651,
      "깊": 652,
      "까": 653,
      "깍": 654,
      "깎": 655,
      "깐": 656,
      "깔": 657,
      "깜": 658,
      "깝": 659,
      "깡": 660,
      "깥": 661,
      "깨": 662,
      "깬": 663,
      "깻": 664,
      "꺼": 665,
      "꺽": 666,
      "꺾": 667,
      "껄": 668,
      "껌": 669,
      "껍": 670,
      "껏": 671,
      "껑": 672,
      "께": 673,
      "껴": 674,
      "꼈": 675,
      "꼬": 676,
      "꼭": 677,
      "꼴": 678,
      "꼼": 679,
      "꼽": 680,
      "꼿": 681,
      "꽁": 682,
      "꽂": 683,
      "꽃": 684,
      "꽉": 685,
      "꽝": 686,
      "꽤": 687,
      "꾀": 688,
      "꾸": 689,
      "꾹": 690,
      "꾼": 691,
      "꿀": 692,
      "꿇": 693,
      "꿈": 694,
      "꿋": 695,
      "꿍": 696,
      "꿔": 697,
      "꿨": 698,
      "꿰": 699,
      "뀌": 700,
      "뀐": 701,
      "뀔": 702,
      "끄": 703,
      "끈": 704,
      "끊": 705,
      "끌": 706,
      "끓": 707,
      "끔": 708,
      "끗": 709,
      "끙": 710,
      "끝": 711,
      "끼": 712,
      "끽": 713,
      "낀": 714,
      "낄": 715,
      "낌": 716,
      "나": 717,
      "낙": 718,
      "낚": 719,
      "난": 720,
      "날": 721,
      "낡": 722,
      "남": 723,
      "납": 724,
      "낫": 725,
      "났": 726,
      "낭": 727,
      "낮": 728,
      "낯": 729,
      "낱": 730,
      "낳": 731,
      "내": 732,
      "낸": 733,
      "낼": 734,
      "냄": 735,
      "냅": 736,
      "냇": 737,
      "냈": 738,
      "냉": 739,
      "냐": 740,
      "냠": 741,
      "냥": 742,
      "너": 743,
      "넉": 744,
      "넋": 745,
      "넌": 746,
      "널": 747,
      "넓": 748,
      "넘": 749,
      "넛": 750,
      "넣": 751,
      "네": 752,
      "넥": 753,
      "넨": 754,
      "넬": 755,
      "넷": 756,
      "넸": 757,
      "넹": 758,
      "녀": 759,
      "녁": 760,
      "년": 761,
      "념": 762,
      "녔": 763,
      "녕": 764,
      "녘": 765,
      "노": 766,
      "녹": 767,
      "논": 768,
      "놀": 769,
      "놈": 770,
      "농": 771,
      "높": 772,
      "놓": 773,
      "놔": 774,
      "놨": 775,
      "뇌": 776,
      "뇨": 777,
      "누": 778,
      "눅": 779,
      "눈": 780,
      "눌": 781,
      "눔": 782,
      "눕": 783,
      "눠": 784,
      "눴": 785,
      "뉘": 786,
      "뉜": 787,
      "뉴": 788,
      "늄": 789,
      "늉": 790,
      "느": 791,
      "늑": 792,
      "는": 793,
      "늘": 794,
      "늙": 795,
      "늠": 796,
      "능": 797,
      "늦": 798,
      "늪": 799,
      "늬": 800,
      "니": 801,
      "닉": 802,
      "닌": 803,
      "닐": 804,
      "님": 805,
      "닙": 806,
      "닛": 807,
      "닝": 808,
      "다": 809,
      "닥": 810,
      "닦": 811,
      "단": 812,
      "닫": 813,
      "달": 814,
      "닭": 815,
      "닮": 816,
      "닳": 817,
      "담": 818,
      "답": 819,
      "닷": 820,
      "당": 821,
      "닿": 822,
      "대": 823,
      "댁": 824,
      "댄": 825,
      "댈": 826,
      "댐": 827,
      "댓": 828,
      "댔": 829,
      "댕": 830,
      "더": 831,
      "덕": 832,
      "던": 833,
      "덜": 834,
      "덟": 835,
      "덤": 836,
      "덥": 837,
      "덧": 838,
      "덩": 839,
      "덫": 840,
      "덮": 841,
      "데": 842,
      "덱": 843,
      "덴": 844,
      "델": 845,
      "뎅": 846,
      "뎌": 847,
      "도": 848,
      "독": 849,
      "돈": 850,
      "돋": 851,
      "돌": 852,
      "돔": 853,
      "돕": 854,
      "돗": 855,
      "동": 856,
      "돼": 857,
      "됐": 858,
      "되": 859,
      "된": 860,
      "될": 861,
      "됨": 862,
      "됩": 863,
      "두": 864,
      "둑": 865,
      "둔": 866,
      "둘": 867,
      "둠": 868,
      "둡": 869,
      "둥": 870,
      "둬": 871,
      "뒀": 872,
      "뒤": 873,
      "뒷": 874,
      "뒹": 875,
      "듀": 876,
      "듈": 877,
      "드": 878,
      "득": 879,
      "든": 880,
      "듣": 881,
      "들": 882,
      "듬": 883,
      "듭": 884,
      "듯": 885,
      "등": 886,
      "디": 887,
      "딕": 888,
      "딘": 889,
      "딛": 890,
      "딜": 891,
      "딤": 892,
      "딥": 893,
      "딧": 894,
      "딩": 895,
      "딪": 896,
      "따": 897,
      "딱": 898,
      "딴": 899,
      "딸": 900,
      "땀": 901,
      "땄": 902,
      "땅": 903,
      "때": 904,
      "땐": 905,
      "땜": 906,
      "땠": 907,
      "땡": 908,
      "떠": 909,
      "떡": 910,
      "떤": 911,
      "떨": 912,
      "떳": 913,
      "떴": 914,
      "떻": 915,
      "떼": 916,
      "뗄": 917,
      "또": 918,
      "똑": 919,
      "똘": 920,
      "똥": 921,
      "뚜": 922,
      "뚝": 923,
      "뚤": 924,
      "뚫": 925,
      "뚱": 926,
      "뛰": 927,
      "뛴": 928,
      "뛸": 929,
      "뜨": 930,
      "뜩": 931,
      "뜬": 932,
      "뜯": 933,
      "뜰": 934,
      "뜸": 935,
      "뜻": 936,
      "띄": 937,
      "띈": 938,
      "띔": 939,
      "띠": 940,
      "띤": 941,
      "라": 942,
      "락": 943,
      "란": 944,
      "랄": 945,
      "람": 946,
      "랍": 947,
      "랏": 948,
      "랐": 949,
      "랑": 950,
      "랗": 951,
      "래": 952,
      "랙": 953,
      "랜": 954,
      "랠": 955,
      "램": 956,
      "랩": 957,
      "랫": 958,
      "랬": 959,
      "랭": 960,
      "랴": 961,
      "략": 962,
      "량": 963,
      "러": 964,
      "럭": 965,
      "런": 966,
      "럴": 967,
      "럼": 968,
      "럽": 969,
      "럿": 970,
      "렀": 971,
      "렁": 972,
      "렇": 973,
      "레": 974,
      "렉": 975,
      "렌": 976,
      "렐": 977,
      "렘": 978,
      "렙": 979,
      "렛": 980,
      "려": 981,
      "력": 982,
      "련": 983,
      "렬": 984,
      "렴": 985,
      "렵": 986,
      "렷": 987,
      "렸": 988,
      "령": 989,
      "례": 990,
      "로": 991,
      "록": 992,
      "론": 993,
      "롤": 994,
      "롬": 995,
      "롭": 996,
      "롯": 997,
      "롱": 998,
      "뢰": 999,
      "료": 1000,
      "룡": 1001,
      "루": 1002,
      "룩": 1003,
      "룬": 1004,
      "룰": 1005,
      "룸": 1006,
      "룹": 1007,
      "룻": 1008,
      "룽": 1009,
      "뤄": 1010,
      "뤘": 1011,
      "뤼": 1012,
      "류": 1013,
      "륙": 1014,
      "륜": 1015,
      "률": 1016,
      "륨": 1017,
      "륭": 1018,
      "르": 1019,
      "륵": 1020,
      "른": 1021,
      "를": 1022,
      "름": 1023,
      "릅": 1024,
      "릇": 1025,
      "릉": 1026,
      "릎": 1027,
      "리": 1028,
      "릭": 1029,
      "린": 1030,
      "릴": 1031,
      "림": 1032,
      "립": 1033,
      "릿": 1034,
      "링": 1035,
      "마": 1036,
      "막": 1037,
      "만": 1038,
      "많": 1039,
      "맏": 1040,
      "말": 1041,
      "맑": 1042,
      "맘": 1043,
      "맙": 1044,
      "맛": 1045,
      "망": 1046,
      "맞": 1047,
      "맡": 1048,
      "맣": 1049,
      "매": 1050,
      "맥": 1051,
      "맨": 1052,
      "맴": 1053,
      "맵": 1054,
      "맷": 1055,
      "맹": 1056,
      "맺": 1057,
      "머": 1058,
      "먹": 1059,
      "먼": 1060,
      "멀": 1061,
      "멈": 1062,
      "멋": 1063,
      "멍": 1064,
      "메": 1065,
      "멕": 1066,
      "멘": 1067,
      "멜": 1068,
      "멤": 1069,
      "멧": 1070,
      "멩": 1071,
      "며": 1072,
      "면": 1073,
      "멸": 1074,
      "몄": 1075,
      "명": 1076,
      "몇": 1077,
      "모": 1078,
      "목": 1079,
      "몫": 1080,
      "몬": 1081,
      "몰": 1082,
      "몸": 1083,
      "몹": 1084,
      "못": 1085,
      "몽": 1086,
      "묘": 1087,
      "무": 1088,
      "묵": 1089,
      "묶": 1090,
      "문": 1091,
      "묻": 1092,
      "물": 1093,
      "뭄": 1094,
      "뭇": 1095,
      "뭉": 1096,
      "뭐": 1097,
      "뭔": 1098,
      "뭘": 1099,
      "뭡": 1100,
      "뭣": 1101,
      "뮌": 1102,
      "뮤": 1103,
      "뮬": 1104,
      "므": 1105,
      "믄": 1106,
      "미": 1107,
      "믹": 1108,
      "민": 1109,
      "믿": 1110,
      "밀": 1111,
      "밉": 1112,
      "밋": 1113,
      "밌": 1114,
      "밍": 1115,
      "및": 1116,
      "밑": 1117,
      "바": 1118,
      "박": 1119,
      "밖": 1120,
      "반": 1121,
      "받": 1122,
      "발": 1123,
      "밝": 1124,
      "밟": 1125,
      "밤": 1126,
      "밥": 1127,
      "밧": 1128,
      "방": 1129,
      "밭": 1130,
      "배": 1131,
      "백": 1132,
      "밴": 1133,
      "밸": 1134,
      "뱀": 1135,
      "뱃": 1136,
      "뱅": 1137,
      "뱉": 1138,
      "버": 1139,
      "벅": 1140,
      "번": 1141,
      "벌": 1142,
      "범": 1143,
      "법": 1144,
      "벗": 1145,
      "벙": 1146,
      "벚": 1147,
      "베": 1148,
      "벡": 1149,
      "벤": 1150,
      "벨": 1151,
      "벳": 1152,
      "벼": 1153,
      "벽": 1154,
      "변": 1155,
      "별": 1156,
      "볍": 1157,
      "병": 1158,
      "볕": 1159,
      "보": 1160,
      "복": 1161,
      "볶": 1162,
      "본": 1163,
      "볼": 1164,
      "봄": 1165,
      "봅": 1166,
      "봇": 1167,
      "봉": 1168,
      "봐": 1169,
      "봤": 1170,
      "뵈": 1171,
      "뵙": 1172,
      "부": 1173,
      "북": 1174,
      "분": 1175,
      "불": 1176,
      "붉": 1177,
      "붐": 1178,
      "붓": 1179,
      "붕": 1180,
      "붙": 1181,
      "뷔": 1182,
      "뷰": 1183,
      "브": 1184,
      "븐": 1185,
      "블": 1186,
      "비": 1187,
      "빅": 1188,
      "빈": 1189,
      "빌": 1190,
      "빔": 1191,
      "빗": 1192,
      "빙": 1193,
      "빚": 1194,
      "빛": 1195,
      "빠": 1196,
      "빡": 1197,
      "빤": 1198,
      "빨": 1199,
      "빴": 1200,
      "빵": 1201,
      "빼": 1202,
      "빽": 1203,
      "뺀": 1204,
      "뺏": 1205,
      "뺐": 1206,
      "뺑": 1207,
      "뺨": 1208,
      "뻐": 1209,
      "뻑": 1210,
      "뻔": 1211,
      "뻗": 1212,
      "뻘": 1213,
      "뻣": 1214,
      "뻤": 1215,
      "뻥": 1216,
      "뼈": 1217,
      "뽀": 1218,
      "뽐": 1219,
      "뽑": 1220,
      "뽕": 1221,
      "뾰": 1222,
      "뿌": 1223,
      "뿍": 1224,
      "뿐": 1225,
      "뿔": 1226,
      "뿜": 1227,
      "쁘": 1228,
      "쁜": 1229,
      "쁠": 1230,
      "쁨": 1231,
      "삐": 1232,
      "사": 1233,
      "삭": 1234,
      "산": 1235,
      "살": 1236,
      "삶": 1237,
      "삼": 1238,
      "삽": 1239,
      "삿": 1240,
      "샀": 1241,
      "상": 1242,
      "샅": 1243,
      "새": 1244,
      "색": 1245,
      "샌": 1246,
      "샐": 1247,
      "샘": 1248,
      "샛": 1249,
      "생": 1250,
      "샤": 1251,
      "샬": 1252,
      "샴": 1253,
      "샵": 1254,
      "샷": 1255,
      "샹": 1256,
      "섀": 1257,
      "서": 1258,
      "석": 1259,
      "섞": 1260,
      "선": 1261,
      "섣": 1262,
      "설": 1263,
      "섬": 1264,
      "섭": 1265,
      "섯": 1266,
      "섰": 1267,
      "성": 1268,
      "세": 1269,
      "섹": 1270,
      "센": 1271,
      "셀": 1272,
      "셈": 1273,
      "셉": 1274,
      "셋": 1275,
      "셔": 1276,
      "션": 1277,
      "셜": 1278,
      "셨": 1279,
      "셰": 1280,
      "셸": 1281,
      "소": 1282,
      "속": 1283,
      "손": 1284,
      "솔": 1285,
      "솜": 1286,
      "솟": 1287,
      "송": 1288,
      "솥": 1289,
      "쇄": 1290,
      "쇠": 1291,
      "쇼": 1292,
      "숍": 1293,
      "숏": 1294,
      "수": 1295,
      "숙": 1296,
      "순": 1297,
      "숟": 1298,
      "술": 1299,
      "숨": 1300,
      "숫": 1301,
      "숭": 1302,
      "숯": 1303,
      "숱": 1304,
      "숲": 1305,
      "쉐": 1306,
      "쉬": 1307,
      "쉰": 1308,
      "쉴": 1309,
      "쉼": 1310,
      "쉽": 1311,
      "슈": 1312,
      "슐": 1313,
      "슘": 1314,
      "슛": 1315,
      "스": 1316,
      "슥": 1317,
      "슨": 1318,
      "슬": 1319,
      "슭": 1320,
      "슴": 1321,
      "습": 1322,
      "슷": 1323,
      "승": 1324,
      "시": 1325,
      "식": 1326,
      "신": 1327,
      "싣": 1328,
      "실": 1329,
      "싫": 1330,
      "심": 1331,
      "십": 1332,
      "싯": 1333,
      "싱": 1334,
      "싶": 1335,
      "싸": 1336,
      "싹": 1337,
      "싼": 1338,
      "쌀": 1339,
      "쌈": 1340,
      "쌌": 1341,
      "쌍": 1342,
      "쌓": 1343,
      "쌤": 1344,
      "써": 1345,
      "썩": 1346,
      "썬": 1347,
      "썰": 1348,
      "썸": 1349,
      "썹": 1350,
      "썼": 1351,
      "썽": 1352,
      "쎄": 1353,
      "쏘": 1354,
      "쏙": 1355,
      "쏜": 1356,
      "쏟": 1357,
      "쏠": 1358,
      "쏴": 1359,
      "쐐": 1360,
      "쑤": 1361,
      "쑥": 1362,
      "쓰": 1363,
      "쓱": 1364,
      "쓴": 1365,
      "쓸": 1366,
      "씀": 1367,
      "씁": 1368,
      "씌": 1369,
      "씨": 1370,
      "씩": 1371,
      "씬": 1372,
      "씹": 1373,
      "씻": 1374,
      "씽": 1375,
      "아": 1376,
      "악": 1377,
      "안": 1378,
      "앉": 1379,
      "않": 1380,
      "알": 1381,
      "앓": 1382,
      "암": 1383,
      "압": 1384,
      "앗": 1385,
      "았": 1386,
      "앙": 1387,
      "앞": 1388,
      "애": 1389,
      "액": 1390,
      "앤": 1391,
      "앨": 1392,
      "앰": 1393,
      "앱": 1394,
      "앵": 1395,
      "야": 1396,
      "약": 1397,
      "얀": 1398,
      "얄": 1399,
      "얇": 1400,
      "얌": 1401,
      "양": 1402,
      "얕": 1403,
      "얗": 1404,
      "얘": 1405,
      "어": 1406,
      "억": 1407,
      "언": 1408,
      "얹": 1409,
      "얻": 1410,
      "얼": 1411,
      "얽": 1412,
      "엄": 1413,
      "업": 1414,
      "없": 1415,
      "엇": 1416,
      "었": 1417,
      "엉": 1418,
      "엌": 1419,
      "엎": 1420,
      "에": 1421,
      "엑": 1422,
      "엔": 1423,
      "엘": 1424,
      "엠": 1425,
      "엣": 1426,
      "엥": 1427,
      "여": 1428,
      "역": 1429,
      "엮": 1430,
      "연": 1431,
      "열": 1432,
      "염": 1433,
      "엽": 1434,
      "엿": 1435,
      "였": 1436,
      "영": 1437,
      "옆": 1438,
      "예": 1439,
      "옌": 1440,
      "옐": 1441,
      "옛": 1442,
      "오": 1443,
      "옥": 1444,
      "온": 1445,
      "올": 1446,
      "옮": 1447,
      "옳": 1448,
      "옴": 1449,
      "옵": 1450,
      "옷": 1451,
      "옹": 1452,
      "와": 1453,
      "왁": 1454,
      "완": 1455,
      "왈": 1456,
      "왓": 1457,
      "왔": 1458,
      "왕": 1459,
      "왜": 1460,
      "왠": 1461,
      "외": 1462,
      "왼": 1463,
      "요": 1464,
      "욕": 1465,
      "욜": 1466,
      "욤": 1467,
      "용": 1468,
      "우": 1469,
      "욱": 1470,
      "운": 1471,
      "울": 1472,
      "움": 1473,
      "웃": 1474,
      "웅": 1475,
      "워": 1476,
      "웍": 1477,
      "원": 1478,
      "월": 1479,
      "웠": 1480,
      "웨": 1481,
      "웬": 1482,
      "웰": 1483,
      "웹": 1484,
      "위": 1485,
      "윈": 1486,
      "윌": 1487,
      "윗": 1488,
      "윙": 1489,
      "유": 1490,
      "육": 1491,
      "윤": 1492,
      "율": 1493,
      "융": 1494,
      "으": 1495,
      "윽": 1496,
      "은": 1497,
      "을": 1498,
      "읊": 1499,
      "음": 1500,
      "읍": 1501,
      "응": 1502,
      "의": 1503,
      "이": 1504,
      "익": 1505,
      "인": 1506,
      "일": 1507,
      "읽": 1508,
      "잃": 1509,
      "임": 1510,
      "입": 1511,
      "잇": 1512,
      "있": 1513,
      "잉": 1514,
      "잊": 1515,
      "잎": 1516,
      "자": 1517,
      "작": 1518,
      "잔": 1519,
      "잖": 1520,
      "잘": 1521,
      "잠": 1522,
      "잡": 1523,
      "잣": 1524,
      "잤": 1525,
      "장": 1526,
      "잦": 1527,
      "재": 1528,
      "잭": 1529,
      "잼": 1530,
      "잿": 1531,
      "쟁": 1532,
      "쟈": 1533,
      "쟤": 1534,
      "저": 1535,
      "적": 1536,
      "전": 1537,
      "절": 1538,
      "젊": 1539,
      "점": 1540,
      "접": 1541,
      "젓": 1542,
      "정": 1543,
      "젖": 1544,
      "제": 1545,
      "젝": 1546,
      "젠": 1547,
      "젤": 1548,
      "젯": 1549,
      "져": 1550,
      "졌": 1551,
      "조": 1552,
      "족": 1553,
      "존": 1554,
      "졸": 1555,
      "좀": 1556,
      "좁": 1557,
      "종": 1558,
      "좇": 1559,
      "좋": 1560,
      "좌": 1561,
      "죄": 1562,
      "죠": 1563,
      "주": 1564,
      "죽": 1565,
      "준": 1566,
      "줄": 1567,
      "줌": 1568,
      "줍": 1569,
      "중": 1570,
      "줘": 1571,
      "줬": 1572,
      "쥐": 1573,
      "쥔": 1574,
      "쥬": 1575,
      "즈": 1576,
      "즉": 1577,
      "즌": 1578,
      "즐": 1579,
      "즘": 1580,
      "즙": 1581,
      "증": 1582,
      "지": 1583,
      "직": 1584,
      "진": 1585,
      "질": 1586,
      "짊": 1587,
      "짐": 1588,
      "집": 1589,
      "짓": 1590,
      "징": 1591,
      "짖": 1592,
      "짙": 1593,
      "짚": 1594,
      "짜": 1595,
      "짝": 1596,
      "짠": 1597,
      "짤": 1598,
      "짧": 1599,
      "짬": 1600,
      "짭": 1601,
      "짱": 1602,
      "째": 1603,
      "쨌": 1604,
      "쩌": 1605,
      "쩍": 1606,
      "쩐": 1607,
      "쩔": 1608,
      "쩜": 1609,
      "쩡": 1610,
      "쪄": 1611,
      "쪼": 1612,
      "쪽": 1613,
      "쫀": 1614,
      "쫄": 1615,
      "쫌": 1616,
      "쫓": 1617,
      "쫙": 1618,
      "쬐": 1619,
      "쭈": 1620,
      "쭉": 1621,
      "쭤": 1622,
      "쯔": 1623,
      "쯤": 1624,
      "찌": 1625,
      "찍": 1626,
      "찐": 1627,
      "찔": 1628,
      "찜": 1629,
      "찡": 1630,
      "찢": 1631,
      "차": 1632,
      "착": 1633,
      "찬": 1634,
      "찮": 1635,
      "찰": 1636,
      "참": 1637,
      "찹": 1638,
      "찻": 1639,
      "찼": 1640,
      "창": 1641,
      "찾": 1642,
      "채": 1643,
      "책": 1644,
      "챈": 1645,
      "챌": 1646,
      "챔": 1647,
      "챘": 1648,
      "챙": 1649,
      "처": 1650,
      "척": 1651,
      "천": 1652,
      "철": 1653,
      "첨": 1654,
      "첩": 1655,
      "첫": 1656,
      "청": 1657,
      "체": 1658,
      "첸": 1659,
      "첼": 1660,
      "쳐": 1661,
      "쳤": 1662,
      "초": 1663,
      "촉": 1664,
      "촌": 1665,
      "촘": 1666,
      "촛": 1667,
      "총": 1668,
      "촬": 1669,
      "최": 1670,
      "쵸": 1671,
      "추": 1672,
      "축": 1673,
      "춘": 1674,
      "출": 1675,
      "춤": 1676,
      "춥": 1677,
      "춧": 1678,
      "충": 1679,
      "춰": 1680,
      "췄": 1681,
      "췌": 1682,
      "취": 1683,
      "츄": 1684,
      "츠": 1685,
      "측": 1686,
      "츰": 1687,
      "층": 1688,
      "치": 1689,
      "칙": 1690,
      "친": 1691,
      "칠": 1692,
      "침": 1693,
      "칩": 1694,
      "칫": 1695,
      "칭": 1696,
      "카": 1697,
      "칵": 1698,
      "칸": 1699,
      "칼": 1700,
      "캄": 1701,
      "캉": 1702,
      "캐": 1703,
      "캔": 1704,
      "캘": 1705,
      "캠": 1706,
      "캡": 1707,
      "캣": 1708,
      "캬": 1709,
      "커": 1710,
      "컥": 1711,
      "컨": 1712,
      "컫": 1713,
      "컬": 1714,
      "컴": 1715,
      "컵": 1716,
      "컷": 1717,
      "컸": 1718,
      "케": 1719,
      "켄": 1720,
      "켈": 1721,
      "켓": 1722,
      "켜": 1723,
      "켠": 1724,
      "켰": 1725,
      "코": 1726,
      "콕": 1727,
      "콘": 1728,
      "콜": 1729,
      "콤": 1730,
      "콥": 1731,
      "콧": 1732,
      "콩": 1733,
      "콰": 1734,
      "쾅": 1735,
      "쾌": 1736,
      "쿄": 1737,
      "쿠": 1738,
      "쿡": 1739,
      "쿤": 1740,
      "쿨": 1741,
      "쿵": 1742,
      "쿼": 1743,
      "퀄": 1744,
      "퀘": 1745,
      "퀴": 1746,
      "퀸": 1747,
      "큐": 1748,
      "큘": 1749,
      "크": 1750,
      "큰": 1751,
      "클": 1752,
      "큼": 1753,
      "키": 1754,
      "킥": 1755,
      "킨": 1756,
      "킬": 1757,
      "킴": 1758,
      "킷": 1759,
      "킹": 1760,
      "타": 1761,
      "탁": 1762,
      "탄": 1763,
      "탈": 1764,
      "탐": 1765,
      "탑": 1766,
      "탓": 1767,
      "탔": 1768,
      "탕": 1769,
      "태": 1770,
      "택": 1771,
      "탠": 1772,
      "탤": 1773,
      "탬": 1774,
      "탭": 1775,
      "탱": 1776,
      "터": 1777,
      "턱": 1778,
      "턴": 1779,
      "털": 1780,
      "텀": 1781,
      "텁": 1782,
      "텃": 1783,
      "텅": 1784,
      "테": 1785,
      "텍": 1786,
      "텐": 1787,
      "텔": 1788,
      "템": 1789,
      "텝": 1790,
      "텨": 1791,
      "톈": 1792,
      "토": 1793,
      "톡": 1794,
      "톤": 1795,
      "톨": 1796,
      "톰": 1797,
      "톱": 1798,
      "통": 1799,
      "퇴": 1800,
      "투": 1801,
      "툭": 1802,
      "툰": 1803,
      "툴": 1804,
      "툼": 1805,
      "퉁": 1806,
      "퉈": 1807,
      "튀": 1808,
      "튕": 1809,
      "튜": 1810,
      "튬": 1811,
      "트": 1812,
      "특": 1813,
      "튼": 1814,
      "튿": 1815,
      "틀": 1816,
      "틈": 1817,
      "틋": 1818,
      "티": 1819,
      "틱": 1820,
      "틴": 1821,
      "틸": 1822,
      "팀": 1823,
      "팁": 1824,
      "팅": 1825,
      "파": 1826,
      "팍": 1827,
      "팎": 1828,
      "판": 1829,
      "팔": 1830,
      "팜": 1831,
      "팝": 1832,
      "팟": 1833,
      "팠": 1834,
      "팡": 1835,
      "팥": 1836,
      "패": 1837,
      "팩": 1838,
      "팬": 1839,
      "팰": 1840,
      "팸": 1841,
      "팻": 1842,
      "팽": 1843,
      "퍼": 1844,
      "퍽": 1845,
      "펀": 1846,
      "펄": 1847,
      "펌": 1848,
      "펑": 1849,
      "페": 1850,
      "펙": 1851,
      "펜": 1852,
      "펠": 1853,
      "펫": 1854,
      "펴": 1855,
      "편": 1856,
      "펼": 1857,
      "폄": 1858,
      "폈": 1859,
      "평": 1860,
      "폐": 1861,
      "포": 1862,
      "폭": 1863,
      "폰": 1864,
      "폴": 1865,
      "폼": 1866,
      "퐁": 1867,
      "표": 1868,
      "푸": 1869,
      "푹": 1870,
      "푼": 1871,
      "풀": 1872,
      "품": 1873,
      "풋": 1874,
      "풍": 1875,
      "퓨": 1876,
      "퓰": 1877,
      "프": 1878,
      "픈": 1879,
      "플": 1880,
      "픔": 1881,
      "피": 1882,
      "픽": 1883,
      "핀": 1884,
      "필": 1885,
      "핍": 1886,
      "핏": 1887,
      "핑": 1888,
      "하": 1889,
      "학": 1890,
      "한": 1891,
      "할": 1892,
      "함": 1893,
      "합": 1894,
      "핫": 1895,
      "항": 1896,
      "해": 1897,
      "핵": 1898,
      "핸": 1899,
      "햄": 1900,
      "햇": 1901,
      "했": 1902,
      "행": 1903,
      "향": 1904,
      "허": 1905,
      "헉": 1906,
      "헌": 1907,
      "헐": 1908,
      "험": 1909,
      "헛": 1910,
      "헝": 1911,
      "헤": 1912,
      "헥": 1913,
      "헨": 1914,
      "헬": 1915,
      "헷": 1916,
      "혀": 1917,
      "혁": 1918,
      "현": 1919,
      "혈": 1920,
      "혐": 1921,
      "협": 1922,
      "혔": 1923,
      "형": 1924,
      "혜": 1925,
      "호": 1926,
      "혹": 1927,
      "혼": 1928,
      "홀": 1929,
      "홈": 1930,
      "홉": 1931,
      "홍": 1932,
      "화": 1933,
      "확": 1934,
      "환": 1935,
      "활": 1936,
      "황": 1937,
      "회": 1938,
      "획": 1939,
      "횟": 1940,
      "횡": 1941,
      "효": 1942,
      "후": 1943,
      "훈": 1944,
      "훌": 1945,
      "훑": 1946,
      "훔": 1947,
      "훗": 1948,
      "훤": 1949,
      "훨": 1950,
      "훼": 1951,
      "휘": 1952,
      "휙": 1953,
      "휠": 1954,
      "휩": 1955,
      "휴": 1956,
      "흉": 1957,
      "흐": 1958,
      "흑": 1959,
      "흔": 1960,
      "흘": 1961,
      "흙": 1962,
      "흠": 1963,
      "흡": 1964,
      "흥": 1965,
      "흩": 1966,
      "희": 1967,
      "흰": 1968,
      "히": 1969,
      "힌": 1970,
      "힐": 1971,
      "힘": 1972,
      "힙": 1973,
      "金": 1974,
      "不": 1975,
      "女": 1976,
      "李": 1977,
      "理": 1978,
      "️": 1979,
      "＂": 1980,
      "％": 1981,
      "＆": 1982,
      "＋": 1983,
      "，": 1984,
      "－": 1985,
      "：": 1986,
      "；": 1987,
      "＜": 1988,
      "＝": 1989,
      "＞": 1990,
      "ｍ": 1991,
      "ｔ": 1992,
      "｜": 1993,
      "｢": 1994,
      "｣": 1995,
      "🏻": 1996,
      "👉": 1997,
      "👍": 1998,
      "💕": 1999,
      "😂": 2000,
      "😆": 2001,
      "😍": 2002,
      "😭": 2003,
      "🤣": 2004,
      "##u": 2005,
      "##p": 2006,
      "##e": 2007,
      "##r": 2008,
      "##f": 2009,
      "##l": 2010,
      "##a": 2011,
      "##n": 2012,
      "##t": 2013,
      "##i": 2014,
      "##기": 2015,
      "##호": 2016,
      "##순": 2017,
      "##환": 2018,
      "##개": 2019,
      "##선": 2020,
      "##제": 2021,
      "##ㆍ": 2022,
      "##혈": 2023,
      "##소": 2024,
      "##판": 2025,
      "##응": 2026,
      "##집": 2027,
      "##억": 2028,
      "##그": 2029,
      "##러": 2030,
      "##들": 2031,
      "##q": 2032,
      "##종": 2033,
      "##훈": 2034,
      "##z": 2035,
      "##o": 2036,
      "##m": 2037,
      "##k": 2038,
      "##d": 2039,
      "##b": 2040,
      "##s": 2041,
      "##박": 2042,
      "##진": 2043,
      "##미": 2044,
      "##v": 2045,
      "##c": 2046,
      "##성": 2047,
      "##용": 2048,
      "##5": 2049,
      "##4": 2050,
      "##어": 2051,
      "##이": 2052,
      "##음": 2053,
      "##h": 2054,
      "##석": 2055,
      "##현": 2056,
      "##마": 2057,
      "##읍": 2058,
      "##리": 2059,
      "##ㅏ": 2060,
      "##ㅅ": 2061,
      "##다": 2062,
      "##사": 2063,
      "##g": 2064,
      "##생": 2065,
      "##산": 2066,
      "##시": 2067,
      "##설": 2068,
      "##을": 2069,
      "##재": 2070,
      "##료": 2071,
      "##술": 2072,
      "##은": 2073,
      "##ㅋ": 2074,
      "##나": 2075,
      "##y": 2076,
      "##매": 2077,
      "##업": 2078,
      "##의": 2079,
      "##é": 2080,
      "##T": 2081,
      "##0": 2082,
      "##1": 2083,
      "##직": 2084,
      "##할": 2085,
      "##공": 2086,
      "##망": 2087,
      "##고": 2088,
      "##키": 2089,
      "##위": 2090,
      "##복": 2091,
      "##합": 2092,
      "##체": 2093,
      "##두": 2094,
      "##ㅠ": 2095,
      "##식": 2096,
      "##해": 2097,
      "##님": 2098,
      "##뻥": 2099,
      "##바": 2100,
      "##겔": 2101,
      "##출": 2102,
      "##세": 2103,
      "##대": 2104,
      "##E": 2105,
      "##A": 2106,
      "##R": 2107,
      "##C": 2108,
      "##H": 2109,
      "##M": 2110,
      "##N": 2111,
      "##서": 2112,
      "##수": 2113,
      "##민": 2114,
      "##터": 2115,
      "##가": 2116,
      "##압": 2117,
      "##지": 2118,
      "##도": 2119,
      "##교": 2120,
      "##장": 2121,
      "##영": 2122,
      "##혼": 2123,
      "##회": 2124,
      "##적": 2125,
      "##봉": 2126,
      "##카": 2127,
      "##츠": 2128,
      "##져": 2129,
      "##온": 2130,
      "##르": 2131,
      "##무": 2132,
      "##관": 2133,
      "##D": 2134,
      "##척": 2135,
      "##본": 2136,
      "##우": 2137,
      "##를": 2138,
      "##평": 2139,
      "##통": 2140,
      "##갑": 2141,
      "##열": 2142,
      "##쇠": 2143,
      "##부": 2144,
      "##과": 2145,
      "##젠": 2146,
      "##데": 2147,
      "##👍": 2148,
      "##멀": 2149,
      "##떠": 2150,
      "##비": 2151,
      "##💕": 2152,
      "##릿": 2153,
      "##만": 2154,
      "##자": 2155,
      "##연": 2156,
      "##금": 2157,
      "##후": 2158,
      "##추": 2159,
      "##파": 2160,
      "##슬": 2161,
      "##루": 2162,
      "##필": 2163,
      "##승": 2164,
      "##전": 2165,
      "##찬": 2166,
      "##앙": 2167,
      "##오": 2168,
      "##근": 2169,
      "##에": 2170,
      "##겐": 2171,
      "##남": 2172,
      "##여": 2173,
      "##축": 2174,
      "##w": 2175,
      "##맥": 2176,
      "##울": 2177,
      "##보": 2178,
      "##인": 2179,
      "##거": 2180,
      "##라": 2181,
      "##요": 2182,
      "##능": 2183,
      "##I": 2184,
      "##O": 2185,
      "##깅": 2186,
      "##엉": 2187,
      "##ㅇ": 2188,
      "##레": 2189,
      "##저": 2190,
      "##쇼": 2191,
      "##핑": 2192,
      "##육": 2193,
      "##예": 2194,
      "##3": 2195,
      "##8": 2196,
      "##션": 2197,
      "##휴": 2198,
      "##량": 2199,
      "##로": 2200,
      "##테": 2201,
      "##른": 2202,
      "##네": 2203,
      "##톰": 2204,
      "##하": 2205,
      "##B": 2206,
      "##권": 2207,
      "##포": 2208,
      "##니": 2209,
      "##일": 2210,
      "##명": 2211,
      "##끄": 2212,
      "##K": 2213,
      "##Y": 2214,
      "##각": 2215,
      "##극": 2216,
      "##탈": 2217,
      "##학": 2218,
      "##습": 2219,
      "##디": 2220,
      "##양": 2221,
      "##광": 2222,
      "##주": 2223,
      "##송": 2224,
      "##치": 2225,
      "##국": 2226,
      "##아": 2227,
      "##즈": 2228,
      "##텍": 2229,
      "##잉": 2230,
      "##말": 2231,
      "##차": 2232,
      "##칠": 2233,
      "##슨": 2234,
      "##잎": 2235,
      "##9": 2236,
      "##L": 2237,
      "##S": 2238,
      "##방": 2239,
      "##맹": 2240,
      "##란": 2241,
      "##군": 2242,
      "##ㅂ": 2243,
      "##짜": 2244,
      "##올": 2245,
      "##같": 2246,
      "##케": 2247,
      "##6": 2248,
      "##걸": 2249,
      "##신": 2250,
      "##구": 2251,
      "##원": 2252,
      "##눈": 2253,
      "##7": 2254,
      "##스": 2255,
      "##타": 2256,
      "##푸": 2257,
      "##코": 2258,
      "##는": 2259,
      "##태": 2260,
      "##앤": 2261,
      "##젤": 2262,
      "##피": 2263,
      "##버": 2264,
      "##트": 2265,
      "##물": 2266,
      "##화": 2267,
      "##첨": 2268,
      "##엄": 2269,
      "##청": 2270,
      "##렴": 2271,
      "##름": 2272,
      "##새": 2273,
      "##끼": 2274,
      "##야": 2275,
      "##▼": 2276,
      "##폭": 2277,
      "##염": 2278,
      "##으": 2279,
      "##강": 2280,
      "##릉": 2281,
      "##머": 2282,
      "##안": 2283,
      "##중": 2284,
      "##흥": 2285,
      "##단": 2286,
      "##정": 2287,
      "##김": 2288,
      "##임": 2289,
      "##상": 2290,
      "##령": 2291,
      "##크": 2292,
      "##죄": 2293,
      "##처": 2294,
      "##벌": 2295,
      "##x": 2296,
      "##운": 2297,
      "##유": 2298,
      "##까": 2299,
      "##숙": 2300,
      "##특": 2301,
      "##2": 2302,
      "##J": 2303,
      "##증": 2304,
      "##왕": 2305,
      "##녀": 2306,
      "##며": 2307,
      "##j": 2308,
      "##U": 2309,
      "##투": 2310,
      "##발": 2311,
      "##X": 2312,
      "##철": 2313,
      "##F": 2314,
      "##래": 2315,
      "##표": 2316,
      "##ㄹ": 2317,
      "##게": 2318,
      "##럽": 2319,
      "##더": 2320,
      "##죠": 2321,
      "##턴": 2322,
      "##림": 2323,
      "##돌": 2324,
      "##P": 2325,
      "##닌": 2326,
      "##채": 2327,
      "##동": 2328,
      "##뀌": 2329,
      "##엇": 2330,
      "##역": 2331,
      "##건": 2332,
      "##작": 2333,
      "##황": 2334,
      "##창": 2335,
      "##난": 2336,
      "##천": 2337,
      "##홈": 2338,
      "##립": 2339,
      "##협": 2340,
      "##G": 2341,
      "##댐": 2342,
      "##드": 2343,
      "##곤": 2344,
      "##볼": 2345,
      "##문": 2346,
      "##언": 2347,
      "##애": 2348,
      "##옥": 2349,
      "##W": 2350,
      "##록": 2351,
      "##헤": 2352,
      "##백": 2353,
      "##속": 2354,
      "##땐": 2355,
      "##귀": 2356,
      "##폰": 2357,
      "##꽂": 2358,
      "##었": 2359,
      "##넌": 2360,
      "##심": 2361,
      "##틀": 2362,
      "##춘": 2363,
      "##희": 2364,
      "##완": 2365,
      "##간": 2366,
      "##됐": 2367,
      "##겨": 2368,
      "##내": 2369,
      "##려": 2370,
      "##했": 2371,
      "##입": 2372,
      "##절": 2373,
      "##ㅎ": 2374,
      "##행": 2375,
      "##악": 2376,
      "##분": 2377,
      "##샘": 2378,
      "##랑": 2379,
      "##효": 2380,
      "##큐": 2381,
      "##경": 2382,
      "##람": 2383,
      "##따": 2384,
      "##웠": 2385,
      "##토": 2386,
      "##셀": 2387,
      "##릴": 2388,
      "##먹": 2389,
      "##손": 2390,
      "##모": 2391,
      "##V": 2392,
      "##배": 2393,
      "##병": 2394,
      "##막": 2395,
      "##늘": 2396,
      "##류": 2397,
      "##랭": 2398,
      "##윤": 2399,
      "##ㅌ": 2400,
      "##날": 2401,
      "##앵": 2402,
      "##벨": 2403,
      "##벳": 2404,
      "##독": 2405,
      "##노": 2406,
      "##뽀": 2407,
      "##담": 2408,
      "##ㅜ": 2409,
      "##씬": 2410,
      "##긴": 2411,
      "##ᆞ": 2412,
      "##팅": 2413,
      "##던": 2414,
      "##셔": 2415,
      "##누": 2416,
      "##쓰": 2417,
      "##계": 2418,
      "##충": 2419,
      "##외": 2420,
      "##항": 2421,
      "##ㄱ": 2422,
      "##델": 2423,
      "##활": 2424,
      "##품": 2425,
      "##칙": 2426,
      "##익": 2427,
      "##옷": 2428,
      "##월": 2429,
      "##짠": 2430,
      "##질": 2431,
      "##액": 2432,
      "##융": 2433,
      "##감": 2434,
      "##콘": 2435,
      "##텐": 2436,
      "##솔": 2437,
      "##탁": 2438,
      "##별": 2439,
      "##년": 2440,
      "##졸": 2441,
      "##많": 2442,
      "##삼": 2443,
      "##형": 2444,
      "##너": 2445,
      "##조": 2446,
      "##변": 2447,
      "##달": 2448,
      "##죽": 2449,
      "##긋": 2450,
      "##넹": 2451,
      "##н": 2452,
      "##홍": 2453,
      "##길": 2454,
      "##곳": 2455,
      "##준": 2456,
      "##알": 2457,
      "##낫": 2458,
      "##잔": 2459,
      "##면": 2460,
      "##풀": 2461,
      "##с": 2462,
      "##е": 2463,
      "##о": 2464,
      "##곡": 2465,
      "##린": 2466,
      "##택": 2467,
      "##히": 2468,
      "##접": 2469,
      "##한": 2470,
      "##듯": 2471,
      "##베": 2472,
      "##논": 2473,
      "##섭": 2474,
      "##룩": 2475,
      "##댔": 2476,
      "##실": 2477,
      "##급": 2478,
      "##렌": 2479,
      "##훼": 2480,
      "##당": 2481,
      "##향": 2482,
      "##씨": 2483,
      "##겼": 2484,
      "##색": 2485,
      "##엽": 2486,
      "##흐": 2487,
      "##족": 2488,
      "##결": 2489,
      "##납": 2490,
      "##등": 2491,
      "##р": 2492,
      "##а": 2493,
      "##참": 2494,
      "##못": 2495,
      "##되": 2496,
      "##и": 2497,
      "##롱": 2498,
      "##패": 2499,
      "##딩": 2500,
      "##골": 2501,
      "##격": 2502,
      "##흑": 2503,
      "##규": 2504,
      "##좀": 2505,
      "##커": 2506,
      "##였": 2507,
      "##큼": 2508,
      "##허": 2509,
      "##균": 2510,
      "##범": 2511,
      "##🏻": 2512,
      "##잖": 2513,
      "##메": 2514,
      "##프": 2515,
      "##꽃": 2516,
      "##번": 2517,
      "##쇄": 2518,
      "##랄": 2519,
      "##법": 2520,
      "##락": 2521,
      "##와": 2522,
      "##낼": 2523,
      "##찰": 2524,
      "##써": 2525,
      "##력": 2526,
      "##꼈": 2527,
      "##꾼": 2528,
      "##냐": 2529,
      "##함": 2530,
      "##밀": 2531,
      "##점": 2532,
      "##풍": 2533,
      "##율": 2534,
      "##초": 2535,
      "##반": 2536,
      "##득": 2537,
      "##꼴": 2538,
      "##벙": 2539,
      "##침": 2540,
      "##т": 2541,
      "##렸": 2542,
      "##묘": 2543,
      "##념": 2544,
      "##팸": 2545,
      "##플": 2546,
      "##북": 2547,
      "##빌": 2548,
      "##몰": 2549,
      "##퇴": 2550,
      "##혁": 2551,
      "##흉": 2552,
      "##ㄷ": 2553,
      "##탄": 2554,
      "##렁": 2555,
      "##힐": 2556,
      "##링": 2557,
      "##책": 2558,
      "##펠": 2559,
      "##믿": 2560,
      "##혔": 2561,
      "##암": 2562,
      "##센": 2563,
      "##웅": 2564,
      "##둑": 2565,
      "##쫀": 2566,
      "##숭": 2567,
      "##겸": 2568,
      "##덕": 2569,
      "##론": 2570,
      "##꼬": 2571,
      "##춤": 2572,
      "##ㅡ": 2573,
      "##빠": 2574,
      "##갓": 2575,
      "##냉": 2576,
      "##갈": 2577,
      "##편": 2578,
      "##씌": 2579,
      "##련": 2580,
      "##왼": 2581,
      "##몬": 2582,
      "##클": 2583,
      "##좌": 2584,
      "##싶": 2585,
      "##취": 2586,
      "##딱": 2587,
      "##불": 2588,
      "##약": 2589,
      "##륵": 2590,
      "##쪼": 2591,
      "##꼽": 2592,
      "##살": 2593,
      "##섹": 2594,
      "##률": 2595,
      "##찌": 2596,
      "##뇨": 2597,
      "##샤": 2598,
      "##껍": 2599,
      "##칼": 2600,
      "##슈": 2601,
      "##렀": 2602,
      "##블": 2603,
      "##빙": 2604,
      "##킨": 2605,
      "##견": 2606,
      "##륙": 2607,
      "##맞": 2608,
      "##객": 2609,
      "##엿": 2610,
      "##Z": 2611,
      "##목": 2612,
      "##욕": 2613,
      "##엔": 2614,
      "##먼": 2615,
      "##폐": 2616,
      "##얼": 2617,
      "##굴": 2618,
      "##첩": 2619,
      "##웨": 2620,
      "##켜": 2621,
      "##힘": 2622,
      "##갯": 2623,
      "##층": 2624,
      "##빵": 2625,
      "##빈": 2626,
      "##헌": 2627,
      "##팀": 2628,
      "##괴": 2629,
      "##농": 2630,
      "##최": 2631,
      "##ㅈ": 2632,
      "##밍": 2633,
      "##톤": 2634,
      "##넥": 2635,
      "##잇": 2636,
      "##촬": 2637,
      "##곽": 2638,
      "##랜": 2639,
      "##십": 2640,
      "##랏": 2641,
      "##엌": 2642,
      "##템": 2643,
      "##퀴": 2644,
      "##브": 2645,
      "##닥": 2646,
      "##둠": 2647,
      "##왈": 2648,
      "##픈": 2649,
      "##뇌": 2650,
      "##될": 2651,
      "##️": 2652,
      "##궁": 2653,
      "##쟈": 2654,
      "##괘": 2655,
      "##섬": 2656,
      "##랩": 2657,
      "##콩": 2658,
      "##텔": 2659,
      "##꾸": 2660,
      "##짝": 2661,
      "##벼": 2662,
      "##험": 2663,
      "##룡": 2664,
      "##촉": 2665,
      "##쿠": 2666,
      "##워": 2667,
      "##착": 2668,
      "##털": 2669,
      "##얌": 2670,
      "##밌": 2671,
      "##칭": 2672,
      "##굿": 2673,
      "##닷": 2674,
      "##쳐": 2675,
      "##😭": 2676,
      "##튼": 2677,
      "##께": 2678,
      "##꺼": 2679,
      "##둥": 2680,
      "##Q": 2681,
      "##욱": 2682,
      "##멜": 2683,
      "##둔": 2684,
      "##톡": 2685,
      "##쌍": 2686,
      "##뿌": 2687,
      "##찾": 2688,
      "##있": 2689,
      "##굶": 2690,
      "##빡": 2691,
      "##묵": 2692,
      "##뭉": 2693,
      "##칸": 2694,
      "##딘": 2695,
      "##쁨": 2696,
      "##꼼": 2697,
      "##확": 2698,
      "##😆": 2699,
      "##컨": 2700,
      "##글": 2701,
      "##혜": 2702,
      "##벤": 2703,
      "##셜": 2704,
      "##셰": 2705,
      "##놈": 2706,
      "##넨": 2707,
      "##늄": 2708,
      "##튀": 2709,
      "##벽": 2710,
      "##긍": 2711,
      "##퍼": 2712,
      "##멕": 2713,
      "##횡": 2714,
      "##깔": 2715,
      "##좋": 2716,
      "##즉": 2717,
      "##낭": 2718,
      "##짐": 2719,
      "##친": 2720,
      "##옴": 2721,
      "##륜": 2722,
      "##답": 2723,
      "##걀": 2724,
      "##퉁": 2725,
      "##뮌": 2726,
      "##헨": 2727,
      "##것": 2728,
      "##쟁": 2729,
      "##촌": 2730,
      "##럼": 2731,
      "##쓴": 2732,
      "##맛": 2733,
      "##톱": 2734,
      "##탐": 2735,
      "##검": 2736,
      "##랴": 2737,
      "##볶": 2738,
      "##댁": 2739,
      "##휘": 2740,
      "##잡": 2741,
      "##멍": 2742,
      "##페": 2743,
      "##껏": 2744,
      "##랍": 2745,
      "##찮": 2746,
      "##티": 2747,
      "##겄": 2748,
      "##햇": 2749,
      "##콜": 2750,
      "##뜨": 2751,
      "##헬": 2752,
      "##빛": 2753,
      "##낸": 2754,
      "##ㄴ": 2755,
      "##삽": 2756,
      "##받": 2757,
      "##쥐": 2758,
      "##혀": 2759,
      "##겟": 2760,
      "##펴": 2761,
      "##셈": 2762,
      "##맨": 2763,
      "##킬": 2764,
      "##돈": 2765,
      "##닮": 2766,
      "##앗": 2767,
      "##흠": 2768,
      "##の": 2769,
      "##젯": 2770,
      "##궐": 2771,
      "##밖": 2772,
      "##략": 2773,
      "##즘": 2774,
      "##때": 2775,
      "##줄": 2776,
      "##톨": 2777,
      "##든": 2778,
      "##릅": 2779,
      "##춰": 2780,
      "##널": 2781,
      "##뿐": 2782,
      "##럴": 2783,
      "##갛": 2784,
      "##샌": 2785,
      "##쌓": 2786,
      "##곰": 2787,
      "##팡": 2788,
      "##뤼": 2789,
      "##😂": 2790,
      "##🤣": 2791,
      "##또": 2792,
      "##례": 2793,
      "##튜": 2794,
      "##샐": 2795,
      "##옵": 2796,
      "##곱": 2797,
      "##탕": 2798,
      "##씹": 2799,
      "##맘": 2800,
      "##꼭": 2801,
      "##ㅁ": 2802,
      "##됨": 2803,
      "##콧": 2804,
      "##😍": 2805,
      "##툰": 2806,
      "##떡": 2807,
      "##획": 2808,
      "##쾌": 2809,
      "##줘": 2810,
      "##돼": 2811,
      "##삭": 2812,
      "##덜": 2813,
      "##몽": 2814,
      "##몹": 2815,
      "##뮤": 2816,
      "##○": 2817,
      "##²": 2818,
      "##뺏": 2819,
      "##멸": 2820,
      "##귄": 2821,
      "##캠": 2822,
      "##럭": 2823,
      "##겁": 2824,
      "##쭈": 2825,
      "##룽": 2826,
      "##홀": 2827,
      "##쭉": 2828,
      "##넬": 2829,
      "##뮬": 2830,
      "##옹": 2831,
      "##ｍ": 2832,
      "##쌈": 2833,
      "##밥": 2834,
      "##둬": 2835,
      "##닭": 2836,
      "##똥": 2837,
      "##콰": 2838,
      "##섯": 2839,
      "##덤": 2840,
      "##룬": 2841,
      "##웬": 2842,
      "##엘": 2843,
      "##깨": 2844,
      "##끗": 2845,
      "##▷": 2846,
      "##냈": 2847,
      "##뢰": 2848,
      "##꾹": 2849,
      "##놓": 2850,
      "##돕": 2851,
      "##웃": 2852,
      "##흔": 2853,
      "##홉": 2854,
      "##큰": 2855,
      "##늑": 2856,
      "##쑤": 2857,
      "##핀": 2858,
      "##총": 2859,
      "##⠀": 2860,
      "##뱃": 2861,
      "##븐": 2862,
      "##끔": 2863,
      "##꽁": 2864,
      "##뼈": 2865,
      "##샹": 2866,
      "##놀": 2867,
      "##챔": 2868,
      "##존": 2869,
      "##릭": 2870,
      "##헝": 2871,
      "##않": 2872,
      "##앉": 2873,
      "##젓": 2874,
      "##늙": 2875,
      "##흙": 2876,
      "##롯": 2877,
      "##핵": 2878,
      "##멘": 2879,
      "##ㅣ": 2880,
      "##넷": 2881,
      "##뱅": 2882,
      "##킹": 2883,
      "##렬": 2884,
      "##끈": 2885,
      "##았": 2886,
      "##횟": 2887,
      "##떻": 2888,
      "##걔": 2889,
      "##뷰": 2890,
      "##슘": 2891,
      "##팔": 2892,
      "##쉬": 2893,
      "##움": 2894,
      "##몸": 2895,
      "##헐": 2896,
      "##된": 2897,
      "##캐": 2898,
      "##없": 2899,
      "##윙": 2900,
      "##앱": 2901,
      "##끓": 2902,
      "##궤": 2903,
      "##쯔": 2904,
      "##딸": 2905,
      "##덴": 2906,
      "##왔": 2907,
      "##듬": 2908,
      "##뺨": 2909,
      "##멧": 2910,
      "##덮": 2911,
      "##녹": 2912,
      "##붓": 2913,
      "##픔": 2914,
      "##뒷": 2915,
      "##꿈": 2916,
      "##잘": 2917,
      "##겠": 2918,
      "##빨": 2919,
      "##짓": 2920,
      "##낙": 2921,
      "##느": 2922,
      "##②": 2923,
      "##⑤": 2924,
      "##⑥": 2925,
      "##녕": 2926,
      "##넘": 2927,
      "##켓": 2928,
      "##싼": 2929,
      "##×": 2930,
      "##믹": 2931,
      "##덧": 2932,
      "##딧": 2933,
      "##퓨": 2934,
      "##싸": 2935,
      "##쑥": 2936,
      "##멋": 2937,
      "##붕": 2938,
      "##얻": 2939,
      "##빅": 2940,
      "##캡": 2941,
      "##싱": 2942,
      "##츰": 2943,
      "##닝": 2944,
      "##펜": 2945,
      "##핏": 2946,
      "##돔": 2947,
      "##썽": 2948,
      "##밤": 2949,
      "##캔": 2950,
      "##졌": 2951,
      "##탠": 2952,
      "##탑": 2953,
      "##쳤": 2954,
      "##닉": 2955,
      "##늬": 2956,
      "##런": 2957,
      "##킥": 2958,
      "##떼": 2959,
      "##틱": 2960,
      "##쉽": 2961,
      "##괄": 2962,
      "##걍": 2963,
      "##＋": 2964,
      "##깐": 2965,
      "##첫": 2966,
      "##옆": 2967,
      "##엑": 2968,
      "##왓": 2969,
      "##므": 2970,
      "##붙": 2971,
      "##띠": 2972,
      "##렉": 2973,
      "##렇": 2974,
      "##흡": 2975,
      "##징": 2976,
      "##뜩": 2977,
      "##빗": 2978,
      "##츄": 2979,
      "##뒤": 2980,
      "##롬": 2981,
      "##삐": 2982,
      "##켰": 2983,
      "##챈": 2984,
      "##렙": 2985,
      "##콥": 2986,
      "##콤": 2987,
      "##쌤": 2988,
      "##갸": 2989,
      "##슴": 2990,
      "##∼": 2991,
      "##닿": 2992,
      "##랫": 2993,
      "##혹": 2994,
      "##냥": 2995,
      "##컴": 2996,
      "##밋": 2997,
      "##봐": 2998,
      "##팬": 2999,
      "##땅": 3000,
      "##쿤": 3001,
      "##즐": 3002,
      "##켈": 3003,
      "##딕": 3004,
      "##뭐": 3005,
      "##벡": 3006,
      "##엥": 3007,
      "##낱": 3008,
      "##딛": 3009,
      "##닐": 3010,
      "##셨": 3011,
      "##콕": 3012,
      "##똑": 3013,
      "##앨": 3014,
      "##깜": 3015,
      "##떨": 3016,
      "##＜": 3017,
      "##놨": 3018,
      "##컬": 3019,
      "##쪽": 3020,
      "##퀘": 3021,
      "##끌": 3022,
      "##쌀": 3023,
      "##찹": 3024,
      "##잠": 3025,
      "##램": 3026,
      "##옌": 3027,
      "##쿨": 3028,
      "##윈": 3029,
      "##폴": 3030,
      "##덩": 3031,
      "##잃": 3032,
      "##측": 3033,
      "##롤": 3034,
      "##꿀": 3035,
      "##쪄": 3036,
      "##컥": 3037,
      "##밧": 3038,
      "##펀": 3039,
      "##낌": 3040,
      "##햄": 3041,
      "##욜": 3042,
      "##틸": 3043,
      "##씀": 3044,
      "##닛": 3045,
      "##값": 3046,
      "##훤": 3047,
      "##■": 3048,
      "##싯": 3049,
      "##얽": 3050,
      "##턱": 3051,
      "##괜": 3052,
      "##덥": 3053,
      "##첸": 3054,
      "##뽑": 3055,
      "##둘": 3056,
      "##밸": 3057,
      "##쿄": 3058,
      "##캄": 3059,
      "##륨": 3060,
      "##껄": 3061,
      "##꿍": 3062,
      "##젖": 3063,
      "##봄": 3064,
      "##뉴": 3065,
      "##듣": 3066,
      "##귤": 3067,
      "##펌": 3068,
      "##툴": 3069,
      "##숨": 3070,
      "##윗": 3071,
      "##봤": 3072,
      "##엠": 3073,
      "##섰": 3074,
      "##엎": 3075,
      "##듀": 3076,
      "##킴": 3077,
      "##잣": 3078,
      "##찼": 3079,
      "##낚": 3080,
      "##렛": 3081,
      "##썰": 3082,
      "##굽": 3083,
      "##펄": 3084,
      "##푹": 3085,
      "##▶": 3086,
      "##굳": 3087,
      "##찍": 3088,
      "##맴": 3089,
      "##룹": 3090,
      "##쵸": 3091,
      "##벅": 3092,
      "##높": 3093,
      "##쥬": 3094,
      "##룻": 3095,
      "##◆": 3096,
      "##쩌": 3097,
      "##궈": 3098,
      "##갤": 3099,
      "##찡": 3100,
      "##쩜": 3101,
      "##즙": 3102,
      "##댄": 3103,
      "##텨": 3104,
      "##깥": 3105,
      "##슭": 3106,
      "##뽕": 3107,
      "##렷": 3108,
      "##뀐": 3109,
      "##렐": 3110,
      "##뗄": 3111,
      "##룰": 3112,
      "##틴": 3113,
      "##헉": 3114,
      "##댈": 3115,
      "##뤘": 3116,
      "##룸": 3117,
      "##Ⅱ": 3118,
      "##Ⅲ": 3119,
      "##젝": 3120,
      "##볕": 3121,
      "##밑": 3122,
      "##맡": 3123,
      "##뚝": 3124,
      "##팍": 3125,
      "##꾀": 3126,
      "##깡": 3127,
      "##썹": 3128,
      "##릎": 3129,
      "##슷": 3130,
      "##→": 3131,
      "##왜": 3132,
      "##탭": 3133,
      "##눔": 3134,
      "##째": 3135,
      "##셋": 3136,
      "##깊": 3137,
      "##팥": 3138,
      "##뭇": 3139,
      "##뻐": 3140,
      "##끝": 3141,
      "##뚱": 3142,
      "##씻": 3143,
      "##팽": 3144,
      "##푼": 3145,
      "##낄": 3146,
      "##렵": 3147,
      "##깃": 3148,
      "##읽": 3149,
      "##삶": 3150,
      "##돋": 3151,
      "##눕": 3152,
      "##녔": 3153,
      "##륭": 3154,
      "##□": 3155,
      "##●": 3156,
      "##쉼": 3157,
      "##눌": 3158,
      "##걷": 3159,
      "##핫": 3160,
      "##빼": 3161,
      "##흰": 3162,
      "##솜": 3163,
      "##끽": 3164,
      "##꿔": 3165,
      "##났": 3166,
      "##늦": 3167,
      "##뚜": 3168,
      "##딜": 3169,
      "##닙": 3170,
      "##싫": 3171,
      "##왠": 3172,
      "##퐁": 3173,
      "##쉐": 3174,
      "##쁘": 3175,
      "##△": 3176,
      "##≪": 3177,
      "##숍": 3178,
      "##즌": 3179,
      "##댕": 3180,
      "##펙": 3181,
      "##샴": 3182,
      "##싹": 3183,
      "##큘": 3184,
      "##왁": 3185,
      "##숫": 3186,
      "##맷": 3187,
      "##뜰": 3188,
      "##텀": 3189,
      "##쫄": 3190,
      "##찜": 3191,
      "##짱": 3192,
      "##윌": 3193,
      "##뛰": 3194,
      "##펑": 3195,
      "##줌": 3196,
      "##괌": 3197,
      "##꺽": 3198,
      "##믄": 3199,
      "##갠": 3200,
      "##봇": 3201,
      "##윽": 3202,
      "##뜻": 3203,
      "##셉": 3204,
      "##겉": 3205,
      "##뱀": 3206,
      "##갱": 3207,
      "##㎝": 3208,
      "##톈": 3209,
      "##튬": 3210,
      "##컵": 3211,
      "##탬": 3212,
      "##섞": 3213,
      "##밭": 3214,
      "##깍": 3215,
      "##쁠": 3216,
      "##뜸": 3217,
      "##굵": 3218,
      "##랬": 3219,
      "##핍": 3220,
      "##늪": 3221,
      "##펫": 3222,
      "##뉘": 3223,
      "##젊": 3224,
      "##릇": 3225,
      "##랐": 3226,
      "##팩": 3227,
      "##탤": 3228,
      "##걱": 3229,
      "##딪": 3230,
      "##쁜": 3231,
      "##①": 3232,
      "##④": 3233,
      "##씽": 3234,
      "##녁": 3235,
      "##⑦": 3236,
      "##픽": 3237,
      "##삿": 3238,
      "##Ⅰ": 3239,
      "##쿡": 3240,
      "##랗": 3241,
      "##헷": 3242,
      "##ㅤ": 3243,
      "##쏟": 3244,
      "##뷔": 3245,
      "##힌": 3246,
      "##쭤": 3247,
      "##뤄": 3248,
      "##뎅": 3249,
      "##쩔": 3250,
      "##핸": 3251,
      "##훌": 3252,
      "##곶": 3253,
      "##갔": 3254,
      "##랙": 3255,
      "##섀": 3256,
      "##뭔": 3257,
      "##뎌": 3258,
      "##웹": 3259,
      "##뚤": 3260,
      "##샷": 3261,
      "##숲": 3262,
      "##솥": 3263,
      "##낮": 3264,
      "##렘": 3265,
      "##틈": 3266,
      "##킷": 3267,
      "##땡": 3268,
      "##줬": 3269,
      "##낳": 3270,
      "##숯": 3271,
      "##얀": 3272,
      "##뻔": 3273,
      "##✨": 3274,
      "##밴": 3275,
      "##듭": 3276,
      "##궂": 3277,
      "##탱": 3278,
      "##★": 3279,
      "##☆": 3280,
      "##멩": 3281,
      "##쥔": 3282,
      "##롭": 3283,
      "##샵": 3284,
      "##뭄": 3285,
      "##욤": 3286,
      "##찐": 3287,
      "##틋": 3288,
      "##깁": 3289,
      "##뾰": 3290,
      "##찻": 3291,
      "##씩": 3292,
      "##벗": 3293,
      "##뵈": 3294,
      "##넉": 3295,
      "##웍": 3296,
      "##앞": 3297,
      "##캣": 3298,
      "##눠": 3299,
      "##눅": 3300,
      "##뺀": 3301,
      "##옳": 3302,
      "##켄": 3303,
      "##쩍": 3304,
      "##♥": 3305,
      "##뿔": 3306,
      "##넓": 3307,
      "##붐": 3308,
      "##흘": 3309,
      "##힙": 3310,
      "##딴": 3311,
      "##웰": 3312,
      "##팜": 3313,
      "##췌": 3314,
      "##댓": 3315,
      "##벚": 3316,
      "##멈": 3317,
      "##챙": 3318,
      "##겹": 3319,
      "##귓": 3320,
      "##뜬": 3321,
      "##쉴": 3322,
      "##줍": 3323,
      "##봅": 3324,
      "##몇": 3325,
      "##껴": 3326,
      "##찔": 3327,
      "##덱": 3328,
      "##꽝": 3329,
      "##텅": 3330,
      "##㈜": 3331,
      "##뿜": 3332,
      "##멤": 3333,
      "##샛": 3334,
      "##냄": 3335,
      "##❤": 3336,
      "##앰": 3337,
      "##촛": 3338,
      "##슥": 3339,
      "##앓": 3340,
      "##첼": 3341,
      "##혐": 3342,
      "##컷": 3343,
      "##쐐": 3344,
      "##훔": 3345,
      "##뻘": 3346,
      "##곧": 3347,
      "##쓸": 3348,
      "##👉": 3349,
      "##껌": 3350,
      "##칵": 3351,
      "##짚": 3352,
      "##쯤": 3353,
      "##닫": 3354,
      "##껑": 3355,
      "##얄": 3356,
      "##짭": 3357,
      "##띔": 3358,
      "##놔": 3359,
      "##팝": 3360,
      "##깝": 3361,
      "##솟": 3362,
      "##쏘": 3363,
      "##쏙": 3364,
      "##팟": 3365,
      "##짖": 3366,
      "##얘": 3367,
      "##셸": 3368,
      "##쫓": 3369,
      "##냠": 3370,
      "##꼿": 3371,
      "##뒹": 3372,
      "##얗": 3373,
      "##밝": 3374,
      "##쿵": 3375,
      "##숟": 3376,
      "##▲": 3377,
      "##쎄": 3378,
      "##캉": 3379,
      "##쓱": 3380,
      "##슐": 3381,
      "##갚": 3382,
      "##쫙": 3383,
      "##춧": 3384,
      "##굉": 3385,
      "##텝": 3386,
      "##짤": 3387,
      "##빔": 3388,
      "##㎡": 3389,
      "##뛴": 3390,
      "##썼": 3391,
      "##붉": 3392,
      "##칫": 3393,
      "##긁": 3394,
      "##퀄": 3395,
      "##춥": 3396,
      "##둡": 3397,
      "##칩": 3398,
      "##듈": 3399,
      "##ｔ": 3400,
      "##♡": 3401,
      "##헥": 3402,
      "##땀": 3403,
      "##쏠": 3404,
      "##뻗": 3405,
      "##☞": 3406,
      "##떤": 3407,
      "##풋": 3408,
      "##깬": 3409,
      "##끊": 3410,
      "##팠": 3411,
      "##냅": 3412,
      "##딤": 3413,
      "##넛": 3414,
      "##챌": 3415,
      "##퀸": 3416,
      "##갖": 3417,
      "##팰": 3418,
      "##썩": 3419,
      "##엮": 3420,
      "##옐": 3421,
      "##뭡": 3422,
      "##낯": 3423,
      "##캘": 3424,
      "##럿": 3425,
      "##헛": 3426,
      "##빤": 3427,
      "##썸": 3428,
      "##낀": 3429,
      "##늠": 3430,
      "##샬": 3431,
      "##몫": 3432,
      "##↑": 3433,
      "##뻑": 3434,
      "##팁": 3435,
      "##툼": 3436,
      "##③": 3437,
      "##＝": 3438,
      "##´": 3439,
      "##─": 3440,
      "##훨": 3441,
      "##똘": 3442,
      "##딥": 3443,
      "##쉰": 3444,
      "##및": 3445,
      "##띤": 3446,
      "##│": 3447,
      "##녘": 3448,
      "##짧": 3449,
      "##퍽": 3450,
      "##짬": 3451,
      "##슛": 3452,
      "##뻣": 3453,
      "##잦": 3454,
      "##볍": 3455,
      "##쏴": 3456,
      "##촘": 3457,
      "##폼": 3458,
      "##쟤": 3459,
      "##맙": 3460,
      "##맏": 3461,
      "##쫌": 3462,
      "##텃": 3463,
      "##엣": 3464,
      "##씁": 3465,
      "##닦": 3466,
      "##밟": 3467,
      "##잼": 3468,
      "##묻": 3469,
      "##펼": 3470,
      "##맣": 3471,
      "##✔": 3472,
      "##빴": 3473,
      "##툭": 3474,
      "##넣": 3475,
      "##캬": 3476,
      "##얹": 3477,
      "##◇": 3478,
      "##쩡": 3479,
      "##쾅": 3480,
      "##맵": 3481,
      "##｜": 3482,
      "##좇": 3483,
      "##떴": 3484,
      "##∙": 3485,
      "##℃": 3486,
      "##냇": 3487,
      "##돗": 3488,
      "##퓰": 3489,
      "##꿇": 3490,
      "##잊": 3491,
      "##꿨": 3492,
      "##튿": 3493,
      "##폈": 3494,
      "##썬": 3495,
      "##쬐": 3496,
      "##팎": 3497,
      "##휙": 3498,
      "##폄": 3499,
      "##쩐": 3500,
      "##췄": 3501,
      "##뺑": 3502,
      "##잿": 3503,
      "##쏜": 3504,
      "##쿼": 3505,
      "##켠": 3506,
      "##잭": 3507,
      "##탓": 3508,
      "##챘": 3509,
      "##깎": 3510,
      "##텁": 3511,
      "##숏": 3512,
      "##옮": 3513,
      "##뿍": 3514,
      "##땜": 3515,
      "##맑": 3516,
      "##옛": 3517,
      "##튕": 3518,
      "##훗": 3519,
      "##샅": 3520,
      "##떳": 3521,
      "##뭘": 3522,
      "##깻": 3523,
      "##짙": 3524,
      "##맺": 3525,
      "##컫": 3526,
      "##얇": 3527,
      "##꺾": 3528,
      "##랠": 3529,
      "##쌌": 3530,
      "##싣": 3531,
      "##좁": 3532,
      "##숱": 3533,
      "##뻤": 3534,
      "##빚": 3535,
      "##겪": 3536,
      "##찢": 3537,
      "##뛸": 3538,
      "##늉": 3539,
      "##뜯": 3540,
      "##━": 3541,
      "##덟": 3542,
      "##＞": 3543,
      "##잤": 3544,
      "##♀": 3545,
      "##덫": 3546,
      "##밉": 3547,
      "##휠": 3548,
      "##빽": 3549,
      "##팻": 3550,
      "##뒀": 3551,
      "##땠": 3552,
      "##뀔": 3553,
      "##끙": 3554,
      "##갇": 3555,
      "##눴": 3556,
      "##⊙": 3557,
      "##흩": 3558,
      "##묶": 3559,
      "##컸": 3560,
      "##읊": 3561,
      "##㏊": 3562,
      "##꿰": 3563,
      "##띄": 3564,
      "##㎞": 3565,
      "##퉈": 3566,
      "##낡": 3567,
      "##얕": 3568,
      "##㎜": 3569,
      "##꽤": 3570,
      "##㎎": 3571,
      "##≫": 3572,
      "##짊": 3573,
      "##넸": 3574,
      "##샀": 3575,
      "##넋": 3576,
      "##뚫": 3577,
      "##뺐": 3578,
      "##뱉": 3579,
      "##곁": 3580,
      "##㎖": 3581,
      "##ℓ": 3582,
      "##뵙": 3583,
      "##섣": 3584,
      "##뭣": 3585,
      "##쨌": 3586,
      "##꿋": 3587,
      "##탔": 3588,
      "##뉜": 3589,
      "##띈": 3590,
      "##훑": 3591,
      "##뽐": 3592,
      "##땄": 3593,
      "##◈": 3594,
      "##휩": 3595,
      "##몄": 3596,
      "##㎏": 3597,
      "##됩": 3598,
      "##꽉": 3599,
      "##닳": 3600,
      "##㎾": 3601,
      "##㎥": 3602,
      "으로": 3603,
      "에서": 3604,
      "한다": 3605,
      "##니다": 3606,
      "##00": 3607,
      "에게": 3608,
      "라고": 3609,
      "까지": 3610,
      "사람": 3611,
      "지만": 3612,
      "면서": 3613,
      "아니": 3614,
      "다는": 3615,
      "우리": 3616,
      "습니다": 3617,
      "대한": 3618,
      "20": 3619,
      "는데": 3620,
      "라는": 3621,
      "된다": 3622,
      "다고": 3623,
      "때문": 3624,
      "지난": 3625,
      "그러": 3626,
      "위해": 3627,
      "생각": 3628,
      "한국": 3629,
      "19": 3630,
      "부터": 3631,
      "보다": 3632,
      "10": 3633,
      "지역": 3634,
      "문제": 3635,
      "그리": 3636,
      "그런": 3637,
      "자신": 3638,
      "사업": 3639,
      "경우": 3640,
      "시간": 3641,
      "이나": 3642,
      "대해": 3643,
      "통해": 3644,
      "해야": 3645,
      "기업": 3646,
      "사회": 3647,
      "시장": 3648,
      "그렇": 3649,
      "200": 3650,
      "아이": 3651,
      "201": 3652,
      "따라": 3653,
      "관계": 3654,
      "함께": 3655,
      "다른": 3656,
      "하나": 3657,
      "이상": 3658,
      "정부": 3659,
      "지금": 3660,
      "대표": 3661,
      "가능": 3662,
      "가지": 3663,
      "교육": 3664,
      "세계": 3665,
      "미국": 3666,
      "이런": 3667,
      "처럼": 3668,
      "사실": 3669,
      "시작": 3670,
      "서울": 3671,
      "그래": 3672,
      "그리고": 3673,
      "경제": 3674,
      "도록": 3675,
      "가장": 3676,
      "필요": 3677,
      "그러나": 3678,
      "만들": 3679,
      "어요": 3680,
      "정도": 3681,
      "경기": 3682,
      "##지만": 3683,
      "는다": 3684,
      "들어": 3685,
      "이번": 3686,
      "위원": 3687,
      "으면": 3688,
      "해서": 3689,
      "다시": 3690,
      "지원": 3691,
      "연구": 3692,
      "중국": 3693,
      "위한": 3694,
      "##통령": 3695,
      "하지만": 3696,
      "문화": 3697,
      "대통령": 3698,
      "이제": 3699,
      "관련": 3700,
      "프로": 3701,
      "모두": 3702,
      "투자": 3703,
      "사용": 3704,
      "밝혔": 3705,
      "상황": 3706,
      "##니까": 3707,
      "일본": 3708,
      "어서": 3709,
      "12": 3710,
      "어떤": 3711,
      "의원": 3712,
      "정치": 3713,
      "입니다": 3714,
      "이렇": 3715,
      "계획": 3716,
      "마음": 3717,
      "11": 3718,
      "이후": 3719,
      "개발": 3720,
      "모든": 3721,
      "다가": 3722,
      "대학": 3723,
      "그것": 3724,
      "ㅋㅋ": 3725,
      "기술": 3726,
      "특히": 3727,
      "국가": 3728,
      "다음": 3729,
      "거나": 3730,
      "결과": 3731,
      "많이": 3732,
      "후보": 3733,
      "사이": 3734,
      "국민": 3735,
      "지난해": 3736,
      "이렇게": 3737,
      "현재": 3738,
      "국내": 3739,
      "30": 3740,
      "학교": 3741,
      "조사": 3742,
      "이야": 3743,
      "최근": 3744,
      "으며": 3745,
      "활동": 3746,
      "과정": 3747,
      "중요": 3748,
      "15": 3749,
      "진행": 3750,
      "산업": 3751,
      "전문": 3752,
      "올해": 3753,
      "는지": 3754,
      "새로": 3755,
      "대상": 3756,
      "다양": 3757,
      "이야기": 3758,
      "관리": 3759,
      "너무": 3760,
      "어떻": 3761,
      "##er": 3762,
      "도시": 3763,
      "동안": 3764,
      "나타": 3765,
      "정보": 3766,
      "학생": 3767,
      "이미": 3768,
      "회사": 3769,
      "##대로": 3770,
      "영화": 3771,
      "민주": 3772,
      "정책": 3773,
      "이용": 3774,
      "그래서": 3775,
      "여기": 3776,
      "평가": 3777,
      "##000": 3778,
      "나라": 3779,
      "자기": 3780,
      "모습": 3781,
      "이유": 3782,
      "보이": 3783,
      "사랑": 3784,
      "바로": 3785,
      "금융": 3786,
      "스타": 3787,
      "설명": 3788,
      "여러": 3789,
      "처음": 3790,
      "##스트": 3791,
      "운영": 3792,
      "다면": 3793,
      "결정": 3794,
      "아무": 3795,
      "이어": 3796,
      "##부터": 3797,
      "자리": 3798,
      "생활": 3799,
      "내용": 3800,
      "18": 3801,
      "##주의": 3802,
      "합니다": 3803,
      "인간": 3804,
      "의미": 3805,
      "없이": 3806,
      "한다는": 3807,
      "제품": 3808,
      "기록": 3809,
      "관계자": 3810,
      "여성": 3811,
      "돌아": 3812,
      "##비스": 3813,
      "이날": 3814,
      "운동": 3815,
      "업체": 3816,
      "당시": 3817,
      "못하": 3818,
      "또한": 3819,
      "시키": 3820,
      "그녀": 3821,
      "오늘": 3822,
      "어야": 3823,
      "새로운": 3824,
      "선수": 3825,
      "방법": 3826,
      "##on": 3827,
      "환경": 3828,
      "##어나": 3829,
      "라며": 3830,
      "주장": 3831,
      "##운데": 3832,
      "북한": 3833,
      "예정": 3834,
      "추진": 3835,
      "더라": 3836,
      "##시아": 3837,
      "서비스": 3838,
      "이러": 3839,
      "삼성": 3840,
      "최고": 3841,
      "어떻게": 3842,
      "물론": 3843,
      "참여": 3844,
      "현대": 3845,
      "역사": 3846,
      "만큼": 3847,
      "같이": 3848,
      "규모": 3849,
      "가운데": 3850,
      "계속": 3851,
      "가격": 3852,
      "나오": 3853,
      "국제": 3854,
      "경쟁": 3855,
      "소리": 3856,
      "시민": 3857,
      "경찰": 3858,
      "발전": 3859,
      "기관": 3860,
      "방송": 3861,
      "선거": 3862,
      "사건": 3863,
      "준비": 3864,
      "교수": 3865,
      "그런데": 3866,
      "관심": 3867,
      "직접": 3868,
      "기대": 3869,
      "지방": 3870,
      "감독": 3871,
      "기준": 3872,
      "회장": 3873,
      "생산": 3874,
      "어느": 3875,
      "13": 3876,
      "성장": 3877,
      "어려": 3878,
      "16": 3879,
      "얘기": 3880,
      "따르": 3881,
      "##머니": 3882,
      "여자": 3883,
      "부분": 3884,
      "아닌": 3885,
      "중심": 3886,
      "##인다": 3887,
      "발생": 3888,
      "상태": 3889,
      "무엇": 3890,
      "시대": 3891,
      "효과": 3892,
      "역시": 3893,
      "제공": 3894,
      "199": 3895,
      "구성": 3896,
      "보여": 3897,
      "##in": 3898,
      "판매": 3899,
      "대구": 3900,
      "ㅋㅋㅋ": 3901,
      "부산": 3902,
      "분석": 3903,
      "상대": 3904,
      "마련": 3905,
      "국회": 3906,
      "개인": 3907,
      "변화": 3908,
      "14": 3909,
      "전체": 3910,
      "100": 3911,
      "25": 3912,
      "발표": 3913,
      "그렇게": 3914,
      "확인": 3915,
      "고객": 3916,
      "요구": 3917,
      "인지": 3918,
      "아직": 3919,
      "성공": 3920,
      "수준": 3921,
      "알려": 3922,
      "이해": 3923,
      "은행": 3924,
      "행사": 3925,
      "모르": 3926,
      "노동": 3927,
      "떨어": 3928,
      "##랜드": 3929,
      "##레이": 3930,
      "대회": 3931,
      "17": 3932,
      "인데": 3933,
      "이름": 3934,
      "일반": 3935,
      "자유": 3936,
      "가족": 3937,
      "인터": 3938,
      "경영": 3939,
      "더욱": 3940,
      "자연": 3941,
      "니까": 3942,
      "얼마": 3943,
      "정말": 3944,
      "위원회": 3945,
      "입장": 3946,
      "##an": 3947,
      "##그램": 3948,
      "친구": 3949,
      "센터": 3950,
      "일부": 3951,
      "전국": 3952,
      "시설": 3953,
      "포함": 3954,
      "인가": 3955,
      "50": 3956,
      "조선": 3957,
      "대해서": 3958,
      "상품": 3959,
      "기간": 3960,
      "위해서": 3961,
      "구조": 3962,
      "소비": 3963,
      "증가": 3964,
      "공동": 3965,
      "실제": 3966,
      "작품": 3967,
      "자동": 3968,
      "프로그램": 3969,
      "지적": 3970,
      "단체": 3971,
      "주민": 3972,
      "노력": 3973,
      "##버지": 3974,
      "로서": 3975,
      "달러": 3976,
      "얼굴": 3977,
      "해도": 3978,
      "영향": 3979,
      "최대": 3980,
      "방식": 3981,
      "이것": 3982,
      "결국": 3983,
      "지나": 3984,
      "가치": 3985,
      "강조": 3986,
      "활용": 3987,
      "##en": 3988,
      "확대": 3989,
      "존재": 3990,
      "세상": 3991,
      "피해": 3992,
      "분야": 3993,
      "당신": 3994,
      "한편": 3995,
      "건강": 3996,
      "남자": 3997,
      "책임": 3998,
      "건설": 3999,
      "##다는": 4000,
      "조직": 4001,
      "라면": 4002,
      "대로": 4003,
      "인사": 4004,
      "나가": 4005,
      "정신": 4006,
      "##으며": 4007,
      "역할": 4008,
      "마다": 4009,
      "제도": 4010,
      "회의": 4011,
      "전략": 4012,
      "또는": 4013,
      "특별": 4014,
      "##거리": 4015,
      "전망": 4016,
      "현실": 4017,
      "을까": 4018,
      "먼저": 4019,
      "##or": 4020,
      "강화": 4021,
      "사고": 4022,
      "대부": 4023,
      "는가": 4024,
      "선택": 4025,
      "만나": 4026,
      "조금": 4027,
      "##ti": 4028,
      "자체": 4029,
      "어린": 4030,
      "주택": 4031,
      "라도": 4032,
      "찾아": 4033,
      "한다고": 4034,
      "사진": 4035,
      "유지": 4036,
      "미래": 4037,
      "과학": 4038,
      "기능": 4039,
      "안전": 4040,
      "21": 4041,
      "외국": 4042,
      "경험": 4043,
      "밖에": 4044,
      "예상": 4045,
      "이루": 4046,
      "못했": 4047,
      "보험": 4048,
      "공개": 4049,
      "##소리": 4050,
      "하루": 4051,
      "해결": 4052,
      "능력": 4053,
      "병원": 4054,
      "기자": 4055,
      "24": 4056,
      "대부분": 4057,
      "##전히": 4058,
      "아요": 4059,
      "##리아": 4060,
      "누구": 4061,
      "여행": 4062,
      "그룹": 4063,
      "40": 4064,
      "##al": 4065,
      "관광": 4066,
      "##진다": 4067,
      "인천": 4068,
      "어디": 4069,
      "직원": 4070,
      "목표": 4071,
      "시스": 4072,
      "정상": 4073,
      "표현": 4074,
      "해외": 4075,
      "개선": 4076,
      "드러": 4077,
      "기존": 4078,
      "공사": 4079,
      "##es": 4080,
      "현장": 4081,
      "오후": 4082,
      "거래": 4083,
      "서로": 4084,
      "그램": 4085,
      "려고": 4086,
      "##없이": 4087,
      "올라": 4088,
      "인정": 4089,
      "보인다": 4090,
      "비롯": 4091,
      "##ar": 4092,
      "아파": 4093,
      "나온": 4094,
      "못한": 4095,
      "아버지": 4096,
      "중앙": 4097,
      "위기": 4098,
      "행정": 4099,
      "머리": 4100,
      "공간": 4101,
      "자동차": 4102,
      "수사": 4103,
      "광주": 4104,
      "내려": 4105,
      "##이트": 4106,
      "22": 4107,
      "로부터": 4108,
      "개월": 4109,
      "방문": 4110,
      "아서": 4111,
      "대비": 4112,
      "따라서": 4113,
      "마을": 4114,
      "지속": 4115,
      "기본": 4116,
      "전화": 4117,
      "기회": 4118,
      "시스템": 4119,
      "위원장": 4120,
      "적용": 4121,
      "엄마": 4122,
      "계약": 4123,
      "아야": 4124,
      "##너지": 4125,
      "지도": 4126,
      "##린다": 4127,
      "##마트": 4128,
      "아주": 4129,
      "실시": 4130,
      "상승": 4131,
      "주요": 4132,
      "적극": 4133,
      "느냐": 4134,
      "예산": 4135,
      "23": 4136,
      "단계": 4137,
      "반대": 4138,
      "려는": 4139,
      "추가": 4140,
      "마지": 4141,
      "거리": 4142,
      "감사": 4143,
      "도움": 4144,
      "예술": 4145,
      "고려": 4146,
      "부담": 4147,
      "업무": 4148,
      "바람": 4149,
      "판단": 4150,
      "행동": 4151,
      "음악": 4152,
      "검찰": 4153,
      "집중": 4154,
      "아파트": 4155,
      "바라": 4156,
      "##동안": 4157,
      "수익": 4158,
      "치료": 4159,
      "들어가": 4160,
      "시즌": 4161,
      "해당": 4162,
      "언론": 4163,
      "세요": 4164,
      "배우": 4165,
      "장관": 4166,
      "거의": 4167,
      "##이스": 4168,
      "상당": 4169,
      "으로써": 4170,
      "게임": 4171,
      "내년": 4172,
      "##스로": 4173,
      "우선": 4174,
      "전쟁": 4175,
      "이전": 4176,
      "무슨": 4177,
      "마지막": 4178,
      "선생": 4179,
      "작업": 4180,
      "그냥": 4181,
      "음식": 4182,
      "브랜드": 4183,
      "사장": 4184,
      "통합": 4185,
      "민주당": 4186,
      "공연": 4187,
      "이사": 4188,
      "##자리": 4189,
      "그때": 4190,
      "행위": 4191,
      "의견": 4192,
      "차이": 4193,
      "확보": 4194,
      "##어난": 4195,
      "조성": 4196,
      "작가": 4197,
      "설치": 4198,
      "비판": 4199,
      "아들": 4200,
      "스스로": 4201,
      "행복": 4202,
      "협력": 4203,
      "단지": 4204,
      "전문가": 4205,
      "의사": 4206,
      "27": 4207,
      "자료": 4208,
      "보내": 4209,
      "26": 4210,
      "처리": 4211,
      "시켜": 4212,
      "동시": 4213,
      "달리": 4214,
      "비용": 4215,
      "보호": 4216,
      "대신": 4217,
      "선정": 4218,
      "더라도": 4219,
      "으로서": 4220,
      "조정": 4221,
      "과거": 4222,
      "공급": 4223,
      "근데": 4224,
      "나왔": 4225,
      "어머니": 4226,
      "유럽": 4227,
      "기억": 4228,
      "진짜": 4229,
      "매우": 4230,
      "198": 4231,
      "28": 4232,
      "평균": 4233,
      "##디어": 4234,
      "각각": 4235,
      "순간": 4236,
      "##he": 4237,
      "그림": 4238,
      "제대로": 4239,
      "주변": 4240,
      "말씀": 4241,
      "문학": 4242,
      "목소리": 4243,
      "공부": 4244,
      "부족": 4245,
      "누리": 4246,
      "움직": 4247,
      "자금": 4248,
      "의해": 4249,
      "거든": 4250,
      "분위": 4251,
      "언제": 4252,
      "위험": 4253,
      "인터넷": 4254,
      "글로": 4255,
      "보도": 4256,
      "발견": 4257,
      "어렵": 4258,
      "이익": 4259,
      "만든": 4260,
      "스러": 4261,
      "안정": 4262,
      "인식": 4263,
      "수출": 4264,
      "스럽": 4265,
      "사무": 4266,
      "부모": 4267,
      "주인": 4268,
      "가까": 4269,
      "매출": 4270,
      "제작": 4271,
      "대책": 4272,
      "결혼": 4273,
      "##나라": 4274,
      "복지": 4275,
      "의식": 4276,
      "제시": 4277,
      "보였": 4278,
      "글로벌": 4279,
      "##른다": 4280,
      "분위기": 4281,
      "지요": 4282,
      "공격": 4283,
      "##전자": 4284,
      "이르": 4285,
      "차지": 4286,
      "방안": 4287,
      "분명": 4288,
      "전통": 4289,
      "지구": 4290,
      "에너지": 4291,
      "그럼": 4292,
      "관한": 4293,
      "앞서": 4294,
      "환자": 4295,
      "얼마나": 4296,
      "소비자": 4297,
      "통신": 4298,
      "전자": 4299,
      "목적": 4300,
      "우려": 4301,
      "예요": 4302,
      "체험": 4303,
      "가구": 4304,
      "반면": 4305,
      "열린": 4306,
      "느낌": 4307,
      "영업": 4308,
      "오히": 4309,
      "이뤄": 4310,
      "그대로": 4311,
      "오히려": 4312,
      "주식": 4313,
      "##가지": 4314,
      "지지": 4315,
      "인기": 4316,
      "기다": 4317,
      "위치": 4318,
      "제기": 4319,
      "비교": 4320,
      "규정": 4321,
      "전시": 4322,
      "스마트": 4323,
      "롯데": 4324,
      "핵심": 4325,
      "LG": 4326,
      "출신": 4327,
      "한테": 4328,
      "디자": 4329,
      "논의": 4330,
      "의료": 4331,
      "충분": 4332,
      "생명": 4333,
      "도입": 4334,
      "피부": 4335,
      "신문": 4336,
      "형태": 4337,
      "시행": 4338,
      "종합": 4339,
      "따른": 4340,
      "질문": 4341,
      "시기": 4342,
      "60": 4343,
      "인상": 4344,
      "공장": 4345,
      "29": 4346,
      "모델": 4347,
      "소개": 4348,
      "중소": 4349,
      "##st": 4350,
      "잖아": 4351,
      "교통": 4352,
      "영국": 4353,
      "지식": 4354,
      "더니": 4355,
      "차례": 4356,
      "비해": 4357,
      "나이": 4358,
      "고자": 4359,
      "장애": 4360,
      "드라": 4361,
      "일정": 4362,
      "네요": 4363,
      "제주": 4364,
      "광고": 4365,
      "전혀": 4366,
      "방향": 4367,
      "##ic": 4368,
      "가정": 4369,
      "거기": 4370,
      "##기업": 4371,
      "마치": 4372,
      "신청": 4373,
      "지난달": 4374,
      "현상": 4375,
      "장기": 4376,
      "프랑": 4377,
      "##이어": 4378,
      "##어지": 4379,
      "이게": 4380,
      "##으나": 4381,
      "업계": 4382,
      "##아들": 4383,
      "TV": 4384,
      "검사": 4385,
      "대화": 4386,
      "SK": 4387,
      "노래": 4388,
      "잘못": 4389,
      "힘들": 4390,
      "참석": 4391,
      "높이": 4392,
      "소설": 4393,
      "대출": 4394,
      "아름": 4395,
      "희망": 4396,
      "##리스": 4397,
      "가진": 4398,
      "카드": 4399,
      "오전": 4400,
      "##아가": 4401,
      "아래": 4402,
      "부동": 4403,
      "펀드": 4404,
      "다르": 4405,
      "가져": 4406,
      "독일": 4407,
      "아침": 4408,
      "에선": 4409,
      "인물": 4410,
      "사례": 4411,
      "##it": 4412,
      "개혁": 4413,
      "개최": 4414,
      "유치": 4415,
      "그만": 4416,
      "기획": 4417,
      "최초": 4418,
      "걱정": 4419,
      "기사": 4420,
      "이동": 4421,
      "성과": 4422,
      "조건": 4423,
      "각종": 4424,
      "청소": 4425,
      "재정": 4426,
      "시절": 4427,
      "혁신": 4428,
      "소득": 4429,
      "인제": 4430,
      "대전": 4431,
      "나타났": 4432,
      "으나": 4433,
      "##om": 4434,
      "##라인": 4435,
      "합의": 4436,
      "공공": 4437,
      "수도": 4438,
      "주목": 4439,
      "연결": 4440,
      "이곳": 4441,
      "요즘": 4442,
      "##레스": 4443,
      "습니까": 4444,
      "고민": 4445,
      "수요": 4446,
      "청와": 4447,
      "시험": 4448,
      "청와대": 4449,
      "전기": 4450,
      "정당": 4451,
      "자본": 4452,
      "개념": 4453,
      "등장": 4454,
      "유명": 4455,
      "혐의": 4456,
      "부문": 4457,
      "일단": 4458,
      "거든요": 4459,
      "참가": 4460,
      "부동산": 4461,
      "체계": 4462,
      "자산": 4463,
      "에요": 4464,
      "협의": 4465,
      "다니": 4466,
      "차량": 4467,
      "구체": 4468,
      "리그": 4469,
      "2000": 4470,
      "수입": 4471,
      "사상": 4472,
      "##무원": 4473,
      "##포츠": 4474,
      "도로": 4475,
      "담당": 4476,
      "대형": 4477,
      "준다": 4478,
      "시청": 4479,
      "정확": 4480,
      "버리": 4481,
      "디자인": 4482,
      "연기": 4483,
      "훈련": 4484,
      "##인트": 4485,
      "아마": 4486,
      "교사": 4487,
      "단순": 4488,
      "세대": 4489,
      "듯이": 4490,
      "느끼": 4491,
      "내부": 4492,
      "##at": 4493,
      "가슴": 4494,
      "선보": 4495,
      "논란": 4496,
      "##el": 4497,
      "어린이": 4498,
      "민족": 4499,
      "으로부터": 4500,
      "아시아": 4501,
      "가입": 4502,
      "재판": 4503,
      "올림": 4504,
      "사라": 4505,
      "나무": 4506,
      "남편": 4507,
      "체제": 4508,
      "대응": 4509,
      "프랑스": 4510,
      "원인": 4511,
      "자원": 4512,
      "검토": 4513,
      "선물": 4514,
      "건물": 4515,
      "분양": 4516,
      "오래": 4517,
      "으니": 4518,
      "##어들": 4519,
      "감소": 4520,
      "##이터": 4521,
      "본부": 4522,
      "반영": 4523,
      "조치": 4524,
      "구축": 4525,
      "진출": 4526,
      "금리": 4527,
      "경남": 4528,
      "31": 4529,
      "보고": 4530,
      "70": 4531,
      "그동안": 4532,
      "부정": 4533,
      "인해": 4534,
      "전달": 4535,
      "어려운": 4536,
      "무대": 4537,
      "##한다": 4538,
      "실제로": 4539,
      "차원": 4540,
      "나와": 4541,
      "출시": 4542,
      "인도": 4543,
      "불과": 4544,
      "인생": 4545,
      "소속": 4546,
      "이하": 4547,
      "공식": 4548,
      "증권": 4549,
      "맛있": 4550,
      "주제": 4551,
      "해요": 4552,
      "일상": 4553,
      "감정": 4554,
      "반응": 4555,
      "##수록": 4556,
      "평화": 4557,
      "자세": 4558,
      "스포츠": 4559,
      "한다면": 4560,
      "전환": 4561,
      "본격": 4562,
      "청년": 4563,
      "우승": 4564,
      "여름": 4565,
      "##므로": 4566,
      "국정": 4567,
      "기반": 4568,
      "##자기": 4569,
      "의회": 4570,
      "고용": 4571,
      "올림픽": 4572,
      "하늘": 4573,
      "비슷": 4574,
      "다만": 4575,
      "남성": 4576,
      "만드": 4577,
      "##반기": 4578,
      "어도": 4579,
      "지켜": 4580,
      "##이크": 4581,
      "아내": 4582,
      "##am": 4583,
      "설립": 4584,
      "회복": 4585,
      "##ing": 4586,
      "넘어": 4587,
      "여부": 4588,
      "지급": 4589,
      "분기": 4590,
      "파악": 4591,
      "확실": 4592,
      "마찬": 4593,
      "여전히": 4594,
      "울산": 4595,
      "##tion": 4596,
      "이끌": 4597,
      "##BS": 4598,
      "공원": 4599,
      "마찬가지": 4600,
      "현지": 4601,
      "노조": 4602,
      "그게": 4603,
      "세기": 4604,
      "형성": 4605,
      "규제": 4606,
      "등록": 4607,
      "기초": 4608,
      "##이지": 4609,
      "성적": 4610,
      "학습": 4611,
      "영어": 4612,
      "살펴": 4613,
      "떠나": 4614,
      "개정": 4615,
      "모양": 4616,
      "받아들": 4617,
      "으면서": 4618,
      "경기도": 4619,
      "활성": 4620,
      "나타나": 4621,
      "##학교": 4622,
      "대선": 4623,
      "바이": 4624,
      "구매": 4625,
      "197": 4626,
      "박근": 4627,
      "신경": 4628,
      "선발": 4629,
      "고요": 4630,
      "외국인": 4631,
      "##이션": 4632,
      "교회": 4633,
      "##ol": 4634,
      "추천": 4635,
      "수행": 4636,
      "연합": 4637,
      "혼자": 4638,
      "우수": 4639,
      "제한": 4640,
      "##is": 4641,
      "소재": 4642,
      "##드시": 4643,
      "승리": 4644,
      "반드시": 4645,
      "공정": 4646,
      "이거": 4647,
      "포인트": 4648,
      "일자리": 4649,
      "해석": 4650,
      "보장": 4651,
      "일어나": 4652,
      "투표": 4653,
      "임금": 4654,
      "박근혜": 4655,
      "제외": 4656,
      "비율": 4657,
      "코스": 4658,
      "의지": 4659,
      "려면": 4660,
      "이미지": 4661,
      "노인": 4662,
      "기념": 4663,
      "갈등": 4664,
      "드라마": 4665,
      "혹은": 4666,
      "500": 4667,
      "공무원": 4668,
      "화장": 4669,
      "지하": 4670,
      "만족": 4671,
      "대중": 4672,
      "35": 4673,
      "집단": 4674,
      "부인": 4675,
      "달라": 4676,
      "정권": 4677,
      "학년": 4678,
      "최종": 4679,
      "약속": 4680,
      "부르": 4681,
      "주도": 4682,
      "##다고": 4683,
      "80": 4684,
      "당연": 4685,
      "언어": 4686,
      "보수": 4687,
      "민간": 4688,
      "아름다": 4689,
      "2010": 4690,
      "방침": 4691,
      "##ㅋㅋ": 4692,
      "식품": 4693,
      "러시아": 4694,
      "자주": 4695,
      "오른": 4696,
      "재미": 4697,
      "요청": 4698,
      "항공": 4699,
      "협상": 4700,
      "##은행": 4701,
      "통일": 4702,
      "시도": 4703,
      "##ur": 4704,
      "올리": 4705,
      "정리": 4706,
      "내놓": 4707,
      "2012": 4708,
      "매일": 4709,
      "께서": 4710,
      "남북": 4711,
      "은데": 4712,
      "축구": 4713,
      "##et": 4714,
      "스타일": 4715,
      "훨씬": 4716,
      "실패": 4717,
      "나서": 4718,
      "그러니까": 4719,
      "하락": 4720,
      "군사": 4721,
      "중소기업": 4722,
      "인구": 4723,
      "경북": 4724,
      "시킨": 4725,
      "도전": 4726,
      "축제": 4727,
      "바라보": 4728,
      "영상": 4729,
      "권력": 4730,
      "가르": 4731,
      "불안": 4732,
      "##il": 4733,
      "출연": 4734,
      "제안": 4735,
      "연구원": 4736,
      "변호": 4737,
      "겨울": 4738,
      "진정": 4739,
      "소통": 4740,
      "##스터": 4741,
      "통한": 4742,
      "유통": 4743,
      "항상": 4744,
      "절차": 4745,
      "주로": 4746,
      "보유": 4747,
      "이론": 4748,
      "##nd": 4749,
      "저녁": 4750,
      "독립": 4751,
      "굉장": 4752,
      "지정": 4753,
      "기분": 4754,
      "제조": 4755,
      "호텔": 4756,
      "알려졌": 4757,
      "오르": 4758,
      "실적": 4759,
      "협회": 4760,
      "대체": 4761,
      "월드": 4762,
      "작용": 4763,
      "최소": 4764,
      "홍보": 4765,
      "갑자기": 4766,
      "원칙": 4767,
      "성격": 4768,
      "대답": 4769,
      "외교": 4770,
      "공항": 4771,
      "법원": 4772,
      "경쟁력": 4773,
      "빠져": 4774,
      "수술": 4775,
      "조차": 4776,
      "영역": 4777,
      "프리": 4778,
      "심리": 4779,
      "속도": 4780,
      "시켰": 4781,
      "원장": 4782,
      "고개": 4783,
      "불구": 4784,
      "그래도": 4785,
      "종교": 4786,
      "요소": 4787,
      "연속": 4788,
      "회원": 4789,
      "사항": 4790,
      "둘러": 4791,
      "##운드": 4792,
      "토론": 4793,
      "엄청": 4794,
      "##다가": 4795,
      "건축": 4796,
      "근로": 4797,
      "삼성전자": 4798,
      "스러운": 4799,
      "했으며": 4800,
      "동물": 4801,
      "일으": 4802,
      "특성": 4803,
      "직장": 4804,
      "창조": 4805,
      "신고": 4806,
      "절대": 4807,
      "시각": 4808,
      "죽음": 4809,
      "봉사": 4810,
      "거쳐": 4811,
      "수상": 4812,
      "불러": 4813,
      "특정": 4814,
      "세력": 4815,
      "특징": 4816,
      "강력": 4817,
      "미술": 4818,
      "취업": 4819,
      "하나님": 4820,
      "사태": 4821,
      "바다": 4822,
      "회담": 4823,
      "골프": 4824,
      "철학": 4825,
      "만약": 4826,
      "창업": 4827,
      "빨리": 4828,
      "의혹": 4829,
      "마케": 4830,
      "지배": 4831,
      "##스크": 4832,
      "여야": 4833,
      "열리": 4834,
      "나누": 4835,
      "뉴스": 4836,
      "므로": 4837,
      "선언": 4838,
      "는데요": 4839,
      "2011": 4840,
      "전해": 4841,
      "작년": 4842,
      "굉장히": 4843,
      "됩니다": 4844,
      "2014": 4845,
      "일까": 4846,
      "##어진": 4847,
      "내리": 4848,
      "불법": 4849,
      "태도": 4850,
      "수업": 4851,
      "마케팅": 4852,
      "으려": 4853,
      "인수": 4854,
      "고통": 4855,
      "체육": 4856,
      "청소년": 4857,
      "사전": 4858,
      "측면": 4859,
      "알아": 4860,
      "자녀": 4861,
      "인력": 4862,
      "덧붙": 4863,
      "여론": 4864,
      "보통": 4865,
      "총리": 4866,
      "주문": 4867,
      "of": 4868,
      "누가": 4869,
      "스트": 4870,
      "##민국": 4871,
      "접근": 4872,
      "수원": 4873,
      "차별": 4874,
      "바탕": 4875,
      "재산": 4876,
      "2009": 4877,
      "야구": 4878,
      "표정": 4879,
      "소식": 4880,
      "돌아가": 4881,
      "유리": 4882,
      "물질": 4883,
      "설계": 4884,
      "초등": 4885,
      "근무": 4886,
      "쇼핑": 4887,
      "라이": 4888,
      "##스타": 4889,
      "##요일": 4890,
      "##스코": 4891,
      "대한민국": 4892,
      "##라이": 4893,
      "된다는": 4894,
      "##디오": 4895,
      "정의": 4896,
      "과제": 4897,
      "2008": 4898,
      "하이": 4899,
      "더불": 4900,
      "신뢰": 4901,
      "무역": 4902,
      "##심히": 4903,
      "혁명": 4904,
      "드리": 4905,
      "##ch": 4906,
      "##ㅠㅠ": 4907,
      "구속": 4908,
      "##어났": 4909,
      "2013": 4910,
      "생기": 4911,
      "2015": 4912,
      "소유": 4913,
      "향후": 4914,
      "마리": 4915,
      "포기": 4916,
      "심사": 4917,
      "지키": 4918,
      "본다": 4919,
      "제일": 4920,
      "금액": 4921,
      "세월": 4922,
      "교과": 4923,
      "주의": 4924,
      "으니까": 4925,
      "##우스": 4926,
      "심각": 4927,
      "나온다": 4928,
      "전했": 4929,
      "커피": 4930,
      "연금": 4931,
      "법인": 4932,
      "부부": 4933,
      "졸업": 4934,
      "자치": 4935,
      "조합": 4936,
      "촬영": 4937,
      "장소": 4938,
      "출발": 4939,
      "저희": 4940,
      "범죄": 4941,
      "버스": 4942,
      "약간": 4943,
      "계기": 4944,
      "잖아요": 4945,
      "비중": 4946,
      "확정": 4947,
      "##ed": 4948,
      "언급": 4949,
      "사망": 4950,
      "1000": 4951,
      "근거": 4952,
      "##BC": 4953,
      "잠시": 4954,
      "효율": 4955,
      "프로젝": 4956,
      "##무리": 4957,
      "나섰": 4958,
      "지사": 4959,
      "주가": 4960,
      "발언": 4961,
      "제출": 4962,
      "통과": 4963,
      "카페": 4964,
      "신용": 4965,
      "거부": 4966,
      "중단": 4967,
      "##러스": 4968,
      "달려": 4969,
      "안타": 4970,
      "김정": 4971,
      "강원": 4972,
      "인근": 4973,
      "##다보": 4974,
      "느껴": 4975,
      "완성": 4976,
      "##나무": 4977,
      "196": 4978,
      "프로젝트": 4979,
      "실천": 4980,
      "상담": 4981,
      "그랬": 4982,
      "가득": 4983,
      "45": 4984,
      "향해": 4985,
      "할인": 4986,
      "32": 4987,
      "여러분": 4988,
      "이란": 4989,
      "올랐": 4990,
      "완전히": 4991,
      "가량": 4992,
      "외부": 4993,
      "달성": 4994,
      "전형": 4995,
      "살아": 4996,
      "전남": 4997,
      "눈물": 4998,
      "300": 4999,
      "등급": 5000,
      "그리스": 5001,
      "36": 5002,
      "고등": 5003,
      "온라인": 5004,
      "예방": 5005,
      "본인": 5006,
      "혜택": 5007,
      "해양": 5008,
      "스마트폰": 5009,
      "임대": 5010,
      "in": 5011,
      "마시": 5012,
      "33": 5013,
      "그럴": 5014,
      "당국": 5015,
      "바꾸": 5016,
      "오랜": 5017,
      "앞두": 5018,
      "노동자": 5019,
      "##벤트": 5020,
      "열심히": 5021,
      "창출": 5022,
      "소송": 5023,
      "##니스": 5024,
      "상상": 5025,
      "변호사": 5026,
      "유일": 5027,
      "이벤트": 5028,
      "마무리": 5029,
      "##거운": 5030,
      "강한": 5031,
      "아프": 5032,
      "5000": 5033,
      "장면": 5034,
      "다리": 5035,
      "그러면": 5036,
      "기다리": 5037,
      "강남": 5038,
      "불리": 5039,
      "금지": 5040,
      "##페인": 5041,
      "바뀌": 5042,
      "지수": 5043,
      "시킬": 5044,
      "재단": 5045,
      "화학": 5046,
      "겁니다": 5047,
      "로운": 5048,
      "버렸": 5049,
      "충분히": 5050,
      "##텐츠": 5051,
      "##od": 5052,
      "리더": 5053,
      "의무": 5054,
      "들여": 5055,
      "떨어지": 5056,
      "원래": 5057,
      "000": 5058,
      "나머": 5059,
      "##ou": 5060,
      "놀라": 5061,
      "the": 5062,
      "펼쳐": 5063,
      "나머지": 5064,
      "전력": 5065,
      "할지": 5066,
      "식사": 5067,
      "수용": 5068,
      "##의원": 5069,
      "아도": 5070,
      "통화": 5071,
      "미치": 5072,
      "##서관": 5073,
      "덧붙였": 5074,
      "법률": 5075,
      "평소": 5076,
      "매장": 5077,
      "을지": 5078,
      "뭔가": 5079,
      "아무리": 5080,
      "대하": 5081,
      "도착": 5082,
      "##le": 5083,
      "요리": 5084,
      "의한": 5085,
      "독자": 5086,
      "서울시": 5087,
      "매년": 5088,
      "신규": 5089,
      "요인": 5090,
      "아빠": 5091,
      "밝혀": 5092,
      "주인공": 5093,
      "흔들": 5094,
      "컴퓨": 5095,
      "계열": 5096,
      "##학생": 5097,
      "90": 5098,
      "전반": 5099,
      "초기": 5100,
      "##화점": 5101,
      "##이드": 5102,
      "동일": 5103,
      "구나": 5104,
      "자는": 5105,
      "웃음": 5106,
      "이때": 5107,
      "KT": 5108,
      "자격": 5109,
      "괜찮": 5110,
      "인터뷰": 5111,
      "당선": 5112,
      "투입": 5113,
      "권리": 5114,
      "이른": 5115,
      "직업": 5116,
      "어려움": 5117,
      "배경": 5118,
      "전용": 5119,
      "나선": 5120,
      "##라도": 5121,
      "상징": 5122,
      "투자자": 5123,
      "완전": 5124,
      "2007": 5125,
      "##프트": 5126,
      "미디어": 5127,
      "긍정": 5128,
      "##고기": 5129,
      "헌법": 5130,
      "변경": 5131,
      "배치": 5132,
      "의장": 5133,
      "미리": 5134,
      "학부": 5135,
      "메시": 5136,
      "부장": 5137,
      "아닐": 5138,
      "그거": 5139,
      "대사": 5140,
      "중간": 5141,
      "채용": 5142,
      "한나라": 5143,
      "향상": 5144,
      "한나라당": 5145,
      "형식": 5146,
      "매력": 5147,
      "##ation": 5148,
      "확산": 5149,
      "구입": 5150,
      "벗어나": 5151,
      "라인": 5152,
      "불편": 5153,
      "통해서": 5154,
      "박사": 5155,
      "콘텐츠": 5156,
      "케이": 5157,
      "연구소": 5158,
      "작성": 5159,
      "꾸준": 5160,
      "문재": 5161,
      "베이": 5162,
      "구요": 5163,
      "##re": 5164,
      "동아": 5165,
      "이어지": 5166,
      "맞춰": 5167,
      "논리": 5168,
      "진단": 5169,
      "컴퓨터": 5170,
      "집행": 5171,
      "물건": 5172,
      "부여": 5173,
      "육성": 5174,
      "보상": 5175,
      "철저": 5176,
      "특수": 5177,
      "야당": 5178,
      "패션": 5179,
      "사과": 5180,
      "나갈": 5181,
      "수석": 5182,
      "사정": 5183,
      "시점": 5184,
      "빠르": 5185,
      "체결": 5186,
      "동의": 5187,
      "인권": 5188,
      "데이터": 5189,
      "연계": 5190,
      "34": 5191,
      "연출": 5192,
      "수학": 5193,
      "공유": 5194,
      "선진": 5195,
      "살펴보": 5196,
      "기울": 5197,
      "인한": 5198,
      "##as": 5199,
      "복합": 5200,
      "한계": 5201,
      "실현": 5202,
      "흐름": 5203,
      "휴대": 5204,
      "반복": 5205,
      "폭력": 5206,
      "그린": 5207,
      "부지": 5208,
      "##다면": 5209,
      "##바일": 5210,
      "우주": 5211,
      "아름다운": 5212,
      "38": 5213,
      "전하": 5214,
      "아닌가": 5215,
      "채권": 5216,
      "2016": 5217,
      "똑같": 5218,
      "연장": 5219,
      "교육청": 5220,
      "모바일": 5221,
      "국토": 5222,
      "부상": 5223,
      "점점": 5224,
      "##리카": 5225,
      "입주": 5226,
      "국방": 5227,
      "주말": 5228,
      "자랑": 5229,
      "상호": 5230,
      "결코": 5231,
      "도와": 5232,
      "위반": 5233,
      "알리": 5234,
      "수단": 5235,
      "봐야": 5236,
      "네트": 5237,
      "균형": 5238,
      "다며": 5239,
      "올려": 5240,
      "와서": 5241,
      "든지": 5242,
      "보고서": 5243,
      "텔레": 5244,
      "했으나": 5245,
      "가리": 5246,
      "설정": 5247,
      "##ent": 5248,
      "대변": 5249,
      "토지": 5250,
      "예비": 5251,
      "브라": 5252,
      "판결": 5253,
      "극복": 5254,
      "기구": 5255,
      "할머니": 5256,
      "고기": 5257,
      "생태": 5258,
      "시선": 5259,
      "종목": 5260,
      "당장": 5261,
      "##일보": 5262,
      "무료": 5263,
      "마저": 5264,
      "과연": 5265,
      "학원": 5266,
      "##20": 5267,
      "적절": 5268,
      "백화점": 5269,
      "실험": 5270,
      "만난": 5271,
      "가을": 5272,
      "줄이": 5273,
      "사이트": 5274,
      "태양": 5275,
      "기계": 5276,
      "이달": 5277,
      "는다는": 5278,
      "이명": 5279,
      "누군": 5280,
      "##50": 5281,
      "주체": 5282,
      "된다고": 5283,
      "긴장": 5284,
      "종류": 5285,
      "맛집": 5286,
      "모집": 5287,
      "그건": 5288,
      "의도": 5289,
      "무기": 5290,
      "기여": 5291,
      "의심": 5292,
      "관객": 5293,
      "나중": 5294,
      "추구": 5295,
      "##페이지": 5296,
      "순위": 5297,
      "##환경": 5298,
      "홈페이지": 5299,
      "청구": 5300,
      "전년": 5301,
      "모아": 5302,
      "떠올": 5303,
      "점검": 5304,
      "메시지": 5305,
      "타이": 5306,
      "고양": 5307,
      "보건": 5308,
      "연대": 5309,
      "실장": 5310,
      "ㅎㅎ": 5311,
      "수많": 5312,
      "구분": 5313,
      "걸쳐": 5314,
      "##반도": 5315,
      "무리": 5316,
      "지시": 5317,
      "편지": 5318,
      "37": 5319,
      "국회의원": 5320,
      "농업": 5321,
      "모른다": 5322,
      "가까이": 5323,
      "간단": 5324,
      "원내": 5325,
      "충격": 5326,
      "국립": 5327,
      "시리": 5328,
      "동기": 5329,
      "갖추": 5330,
      "증거": 5331,
      "아동": 5332,
      "궁금": 5333,
      "상당히": 5334,
      "절반": 5335,
      "정비": 5336,
      "두려": 5337,
      "이탈": 5338,
      "월드컵": 5339,
      "당하": 5340,
      "연간": 5341,
      "##간다": 5342,
      "해소": 5343,
      "##워크": 5344,
      "그곳": 5345,
      "아기": 5346,
      "편의": 5347,
      "통제": 5348,
      "따뜻": 5349,
      "위협": 5350,
      "늘어나": 5351,
      "진실": 5352,
      "과장": 5353,
      "표시": 5354,
      "##가락": 5355,
      "운용": 5356,
      "교체": 5357,
      "허용": 5358,
      "진보": 5359,
      "세트": 5360,
      "비밀": 5361,
      "시인": 5362,
      "경향": 5363,
      "완화": 5364,
      "자율": 5365,
      "소장": 5366,
      "스토": 5367,
      "인재": 5368,
      "뿌리": 5369,
      "이건": 5370,
      "범위": 5371,
      "뉴욕": 5372,
      "바닥": 5373,
      "공약": 5374,
      "움직이": 5375,
      "가까운": 5376,
      "지상": 5377,
      "예전": 5378,
      "피해자": 5379,
      "즐기": 5380,
      "수수": 5381,
      "플레이": 5382,
      "모임": 5383,
      "##럼프": 5384,
      "단위": 5385,
      "의하": 5386,
      "세금": 5387,
      "다이어": 5388,
      "요금": 5389,
      "운전": 5390,
      "불가": 5391,
      "IT": 5392,
      "했었": 5393,
      "계산": 5394,
      "레이": 5395,
      "메뉴": 5396,
      "어쩌": 5397,
      "반발": 5398,
      "고급": 5399,
      "왜냐": 5400,
      "안보": 5401,
      "방지": 5402,
      "대단": 5403,
      "자극": 5404,
      "오픈": 5405,
      "그걸": 5406,
      "지자": 5407,
      "부대": 5408,
      "한반도": 5409,
      "부처": 5410,
      "합리": 5411,
      "전부": 5412,
      "수정": 5413,
      "돌려": 5414,
      "새롭": 5415,
      "최저": 5416,
      "모여": 5417,
      "위하": 5418,
      "출전": 5419,
      "내일": 5420,
      "출판": 5421,
      "디지": 5422,
      "다소": 5423,
      "장비": 5424,
      "총선": 5425,
      "인하": 5426,
      "장치": 5427,
      "자식": 5428,
      "별로": 5429,
      "총장": 5430,
      "결론": 5431,
      "강의": 5432,
      "and": 5433,
      "확장": 5434,
      "들어갔": 5435,
      "##ag": 5436,
      "다섯": 5437,
      "대우": 5438,
      "##산물": 5439,
      "벌이": 5440,
      "면은": 5441,
      "벌써": 5442,
      "가수": 5443,
      "나요": 5444,
      "전개": 5445,
      "공단": 5446,
      "주차": 5447,
      "생긴": 5448,
      "최선": 5449,
      "명령": 5450,
      "흘러": 5451,
      "들어오": 5452,
      "주일": 5453,
      "관광객": 5454,
      "힘든": 5455,
      "상처": 5456,
      "출마": 5457,
      "나올": 5458,
      "교류": 5459,
      "어울": 5460,
      "대학교": 5461,
      "마침": 5462,
      "어깨": 5463,
      "##러운": 5464,
      "비행": 5465,
      "##말로": 5466,
      "발행": 5467,
      "상관": 5468,
      "부품": 5469,
      "어찌": 5470,
      "##어날": 5471,
      "장점": 5472,
      "실력": 5473,
      "2006": 5474,
      "할까": 5475,
      "디지털": 5476,
      "트럼프": 5477,
      "##메라": 5478,
      "창원": 5479,
      "구역": 5480,
      "밝히": 5481,
      "정기": 5482,
      "응답": 5483,
      "끌어": 5484,
      "연주": 5485,
      "실질": 5486,
      "공감": 5487,
      "인증": 5488,
      "천만": 5489,
      "##ac": 5490,
      "보조": 5491,
      "공천": 5492,
      "에스": 5493,
      "역량": 5494,
      "공기": 5495,
      "근대": 5496,
      "나아가": 5497,
      "싸움": 5498,
      "식당": 5499,
      "철도": 5500,
      "예측": 5501,
      "네트워크": 5502,
      "부드": 5503,
      "움직임": 5504,
      "연습": 5505,
      "비상": 5506,
      "질환": 5507,
      "비난": 5508,
      "무시": 5509,
      "끝나": 5510,
      "이내": 5511,
      "고향": 5512,
      "39": 5513,
      "근본": 5514,
      "##구요": 5515,
      "공동체": 5516,
      "고속": 5517,
      "지자체": 5518,
      "##란다": 5519,
      "어떠": 5520,
      "추정": 5521,
      "덕분": 5522,
      "제거": 5523,
      "누군가": 5524,
      "가로": 5525,
      "시리즈": 5526,
      "부탁": 5527,
      "정체": 5528,
      "한데": 5529,
      "지점": 5530,
      "아닙": 5531,
      "둘째": 5532,
      "강하": 5533,
      "자전": 5534,
      "관점": 5535,
      "투쟁": 5536,
      "완벽": 5537,
      "어제": 5538,
      "사업자": 5539,
      "거듭": 5540,
      "희생": 5541,
      "따로": 5542,
      "점수": 5543,
      "충남": 5544,
      "##난다": 5545,
      "기부": 5546,
      "55": 5547,
      "##아지": 5548,
      "회견": 5549,
      "품질": 5550,
      "코리아": 5551,
      "48": 5552,
      "김영": 5553,
      "이명박": 5554,
      "들려": 5555,
      "정규": 5556,
      "##이너": 5557,
      "예수": 5558,
      "##니아": 5559,
      "게다가": 5560,
      "42": 5561,
      "빠른": 5562,
      "유형": 5563,
      "매각": 5564,
      "동생": 5565,
      "새벽": 5566,
      "손해": 5567,
      "해졌": 5568,
      "그만큼": 5569,
      "지분": 5570,
      "세우": 5571,
      "친환경": 5572,
      "문재인": 5573,
      "조용": 5574,
      "국장": 5575,
      "이기": 5576,
      "평생": 5577,
      "눈길": 5578,
      "면적": 5579,
      "베트": 5580,
      "처벌": 5581,
      "군요": 5582,
      "강제": 5583,
      "감안": 5584,
      "크기": 5585,
      "경주": 5586,
      "명예": 5587,
      "필수": 5588,
      "분명히": 5589,
      "분리": 5590,
      "단어": 5591,
      "3000": 5592,
      "물리": 5593,
      "43": 5594,
      "근로자": 5595,
      "정해": 5596,
      "원자": 5597,
      "협약": 5598,
      "민주주의": 5599,
      "재료": 5600,
      "저축": 5601,
      "동네": 5602,
      "뛰어": 5603,
      "동료": 5604,
      "대안": 5605,
      "이성": 5606,
      "관람": 5607,
      "통하": 5608,
      "에게서": 5609,
      "현대차": 5610,
      "안내": 5611,
      "배출": 5612,
      "##ro": 5613,
      "별도": 5614,
      "돼야": 5615,
      "이웃": 5616,
      "이자": 5617,
      "내세": 5618,
      "꾸준히": 5619,
      "개국": 5620,
      "한화": 5621,
      "으므로": 5622,
      "41": 5623,
      "올라가": 5624,
      "이래": 5625,
      "더라고": 5626,
      "동원": 5627,
      "투어": 5628,
      "복잡": 5629,
      "머물": 5630,
      "폐지": 5631,
      "탄생": 5632,
      "MBC": 5633,
      "##공사": 5634,
      "전투": 5635,
      "전면": 5636,
      "공모": 5637,
      "##사자": 5638,
      "승부": 5639,
      "기독": 5640,
      "언제나": 5641,
      "194": 5642,
      "##하면": 5643,
      "KBS": 5644,
      "일제": 5645,
      "결합": 5646,
      "지도자": 5647,
      "거짓": 5648,
      "올렸": 5649,
      "##회장": 5650,
      "수립": 5651,
      "그려": 5652,
      "학부모": 5653,
      "부채": 5654,
      "자전거": 5655,
      "2005": 5656,
      "도덕": 5657,
      "미소": 5658,
      "메이": 5659,
      "##ri": 5660,
      "단일": 5661,
      "수능": 5662,
      "아까": 5663,
      "미사": 5664,
      "아이디어": 5665,
      "보증": 5666,
      "##오르": 5667,
      "2017": 5668,
      "캐릭": 5669,
      "유사": 5670,
      "개입": 5671,
      "경계": 5672,
      "44": 5673,
      "언니": 5674,
      "##준다": 5675,
      "블랙": 5676,
      "카메라": 5677,
      "실수": 5678,
      "크리스": 5679,
      "팀장": 5680,
      "발굴": 5681,
      "비즈": 5682,
      "후반": 5683,
      "65": 5684,
      "거대": 5685,
      "애플": 5686,
      "국무": 5687,
      "키우": 5688,
      "서울대": 5689,
      "캐릭터": 5690,
      "한국인": 5691,
      "처분": 5692,
      "발휘": 5693,
      "나눠": 5694,
      "냄새": 5695,
      "사내": 5696,
      "혹시": 5697,
      "법안": 5698,
      "너무나": 5699,
      "감각": 5700,
      "영양": 5701,
      "그저": 5702,
      "문자": 5703,
      "유가": 5704,
      "학자": 5705,
      "다녀": 5706,
      "여유": 5707,
      "짜리": 5708,
      "아무런": 5709,
      "주년": 5710,
      "촉구": 5711,
      "주위": 5712,
      "베트남": 5713,
      "도서관": 5714,
      "버린": 5715,
      "대리": 5716,
      "자면": 5717,
      "##대표": 5718,
      "그날": 5719,
      "집안": 5720,
      "연락": 5721,
      "##us": 5722,
      "좋아": 5723,
      "물러": 5724,
      "화려": 5725,
      "당연히": 5726,
      "고서": 5727,
      "석유": 5728,
      "조기": 5729,
      "원리": 5730,
      "원전": 5731,
      "46": 5732,
      "번호": 5733,
      "대법": 5734,
      "통계": 5735,
      "소녀": 5736,
      "아울": 5737,
      "오늘날": 5738,
      "맞추": 5739,
      "내렸": 5740,
      "부자": 5741,
      "업종": 5742,
      "입학": 5743,
      "질서": 5744,
      "진입": 5745,
      "깊이": 5746,
      "##프라": 5747,
      "채널": 5748,
      "##ad": 5749,
      "저자": 5750,
      "개방": 5751,
      "CE": 5752,
      "##센트": 5753,
      "시위": 5754,
      "보냈": 5755,
      "걸어": 5756,
      "구간": 5757,
      "후원": 5758,
      "습관": 5759,
      "물량": 5760,
      "사실상": 5761,
      "고교": 5762,
      "이라": 5763,
      "2004": 5764,
      "멀리": 5765,
      "통상": 5766,
      "투명": 5767,
      "성분": 5768,
      "떨어진": 5769,
      "프리미": 5770,
      "비록": 5771,
      "제목": 5772,
      "진다": 5773,
      "캠프": 5774,
      "매체": 5775,
      "기독교": 5776,
      "다행": 5777,
      "다루": 5778,
      "선고": 5779,
      "개편": 5780,
      "##ec": 5781,
      "주거": 5782,
      "이외": 5783,
      "분류": 5784,
      "그니까": 5785,
      "박물": 5786,
      "2018": 5787,
      "출범": 5788,
      "어른": 5789,
      "The": 5790,
      "2002": 5791,
      "날씨": 5792,
      "불만": 5793,
      "못해": 5794,
      "다이어트": 5795,
      "갖춘": 5796,
      "현금": 5797,
      "정원": 5798,
      "노선": 5799,
      "흥미": 5800,
      "47": 5801,
      "파괴": 5802,
      "허리": 5803,
      "형사": 5804,
      "##시오": 5805,
      "##지어": 5806,
      "윤리": 5807,
      "400": 5808,
      "가스": 5809,
      "생겼": 5810,
      "취지": 5811,
      "그러므로": 5812,
      "슈퍼": 5813,
      "검증": 5814,
      "상반기": 5815,
      "##TA": 5816,
      "손실": 5817,
      "##뮤니": 5818,
      "소프트": 5819,
      "투수": 5820,
      "접수": 5821,
      "##라스": 5822,
      "커뮤니": 5823,
      "세워": 5824,
      "훌륭": 5825,
      "취임": 5826,
      "기도": 5827,
      "건너": 5828,
      "왜냐하면": 5829,
      "##un": 5830,
      "직후": 5831,
      "첨단": 5832,
      "추세": 5833,
      "##em": 5834,
      "아쉬": 5835,
      "만났": 5836,
      "치열": 5837,
      "설득": 5838,
      "49": 5839,
      "담배": 5840,
      "사무실": 5841,
      "52": 5842,
      "텐데": 5843,
      "곳곳": 5844,
      "놀이": 5845,
      "포항": 5846,
      "유도": 5847,
      "아예": 5848,
      "개별": 5849,
      "본질": 5850,
      "권한": 5851,
      "오빠": 5852,
      "포스코": 5853,
      "##⠀⠀": 5854,
      "느낄": 5855,
      "##바로": 5856,
      "조절": 5857,
      "이른바": 5858,
      "##리어": 5859,
      "하반기": 5860,
      "옛날": 5861,
      "양성": 5862,
      "내게": 5863,
      "이랑": 5864,
      "인류": 5865,
      "##아버지": 5866,
      "기타": 5867,
      "고등학교": 5868,
      "감동": 5869,
      "열정": 5870,
      "기에": 5871,
      "지휘": 5872,
      "엄청난": 5873,
      "홈런": 5874,
      "부회장": 5875,
      "네네": 5876,
      "선호": 5877,
      "신체": 5878,
      "개성": 5879,
      "사유": 5880,
      "옮겨": 5881,
      "##으니": 5882,
      "자고": 5883,
      "거주": 5884,
      "몰랐": 5885,
      "조심": 5886,
      "승인": 5887,
      "나갔": 5888,
      "대기": 5889,
      "화장품": 5890,
      "안녕": 5891,
      "공포": 5892,
      "빠지": 5893,
      "건립": 5894,
      "지닌": 5895,
      "테이": 5896,
      "허가": 5897,
      "생존": 5898,
      "박물관": 5899,
      "제재": 5900,
      "계층": 5901,
      "부서": 5902,
      "발달": 5903,
      "동반": 5904,
      "서구": 5905,
      "마르": 5906,
      "KB": 5907,
      "##어져": 5908,
      "연극": 5909,
      "스트레스": 5910,
      "전공": 5911,
      "이재": 5912,
      "바꿔": 5913,
      "##리트": 5914,
      "악화": 5915,
      "즐길": 5916,
      "##피스": 5917,
      "경선": 5918,
      "첫째": 5919,
      "떨어져": 5920,
      "위안": 5921,
      "##ot": 5922,
      "생겨": 5923,
      "##메달": 5924,
      "고위": 5925,
      "##케이션": 5926,
      "기소": 5927,
      "비즈니스": 5928,
      "심지어": 5929,
      "증상": 5930,
      "다수": 5931,
      "걸음": 5932,
      "살아가": 5933,
      "상장": 5934,
      "51": 5935,
      "##ow": 5936,
      "임시": 5937,
      "끊임": 5938,
      "최대한": 5939,
      "타임": 5940,
      "비전": 5941,
      "운명": 5942,
      "활약": 5943,
      "##리오": 5944,
      "폭발": 5945,
      "서민": 5946,
      "일찍": 5947,
      "##다른": 5948,
      "깨끗": 5949,
      "소년": 5950,
      "75": 5951,
      "압박": 5952,
      "표준": 5953,
      "매수": 5954,
      "이승": 5955,
      "설비": 5956,
      "바르": 5957,
      "지내": 5958,
      "의문": 5959,
      "멤버": 5960,
      "점심": 5961,
      "초반": 5962,
      "혼란": 5963,
      "못할": 5964,
      "상대방": 5965,
      "스테": 5966,
      "유기": 5967,
      "줄어들": 5968,
      "남녀": 5969,
      "다이": 5970,
      "##세요": 5971,
      "키워": 5972,
      "주관": 5973,
      "취소": 5974,
      "화제": 5975,
      "뛰어난": 5976,
      "자꾸": 5977,
      "전날": 5978,
      "대변인": 5979,
      "원내대표": 5980,
      "여인": 5981,
      "종이": 5982,
      "돌파": 5983,
      "편안": 5984,
      "##ww": 5985,
      "파리": 5986,
      "맞춤": 5987,
      "www": 5988,
      "가졌": 5989,
      "선배": 5990,
      "던지": 5991,
      "점차": 5992,
      "클럽": 5993,
      "2003": 5994,
      "화면": 5995,
      "아르": 5996,
      "53": 5997,
      "보낸": 5998,
      "돌아오": 5999,
      "##마자": 6000,
      "재미있": 6001,
      "매매": 6002,
      "컬러": 6003,
      "기기": 6004,
      "시원": 6005,
      "바란다": 6006,
      "풍부": 6007,
      "화재": 6008,
      "축소": 6009,
      "단기": 6010,
      "시내": 6011,
      "195": 6012,
      "인공": 6013,
      "미군": 6014,
      "여건": 6015,
      "##다란": 6016,
      "군대": 6017,
      "매달": 6018,
      "임명": 6019,
      "밝힌": 6020,
      "학과": 6021,
      "논문": 6022,
      "주력": 6023,
      "크림": 6024,
      "성인": 6025,
      "193": 6026,
      "육아": 6027,
      "##어졌": 6028,
      "##ood": 6029,
      "타자": 6030,
      "이뤄지": 6031,
      "택시": 6032,
      "서류": 6033,
      "전제": 6034,
      "뮤지": 6035,
      "심장": 6036,
      "##ig": 6037,
      "드러내": 6038,
      "신설": 6039,
      "이슈": 6040,
      "보안": 6041,
      "가게": 6042,
      "부진": 6043,
      "단순히": 6044,
      "소중": 6045,
      "해진": 6046,
      "##다니": 6047,
      "오염": 6048,
      "개막": 6049,
      "합격": 6050,
      "당초": 6051,
      "고정": 6052,
      "소화": 6053,
      "여당": 6054,
      "구단": 6055,
      "교과서": 6056,
      "역대": 6057,
      "스님": 6058,
      "54": 6059,
      "돼지": 6060,
      "수비": 6061,
      "활발": 6062,
      "살리": 6063,
      "##ter": 6064,
      "##러리": 6065,
      "취하": 6066,
      "지니": 6067,
      "자마자": 6068,
      "반도": 6069,
      "아울러": 6070,
      "연말": 6071,
      "모자": 6072,
      "어쨌": 6073,
      "##구나": 6074,
      "의존": 6075,
      "##으면": 6076,
      "순수": 6077,
      "느라": 6078,
      "이탈리아": 6079,
      "나쁜": 6080,
      "취재": 6081,
      "150": 6082,
      "찾아가": 6083,
      "##란드": 6084,
      "대장": 6085,
      "56": 6086,
      "인프라": 6087,
      "시티": 6088,
      "신화": 6089,
      "재무": 6090,
      "소방": 6091,
      "퍼센트": 6092,
      "솔직": 6093,
      "규칙": 6094,
      "단독": 6095,
      "무상": 6096,
      "협의회": 6097,
      "공직": 6098,
      "영원": 6099,
      "공통": 6100,
      "임원": 6101,
      "검색": 6102,
      "##터리": 6103,
      "##ess": 6104,
      "59": 6105,
      "수십": 6106,
      "클래": 6107,
      "참고": 6108,
      "되게": 6109,
      "광장": 6110,
      "분노": 6111,
      "편집": 6112,
      "제국": 6113,
      "지향": 6114,
      "위주": 6115,
      "##공업": 6116,
      "##직원": 6117,
      "명확": 6118,
      "녹색": 6119,
      "대학생": 6120,
      "오리": 6121,
      "제정": 6122,
      "조각": 6123,
      "측정": 6124,
      "유엔": 6125,
      "집회": 6126,
      "전세": 6127,
      "##og": 6128,
      "신세": 6129,
      "매입": 6130,
      "받아들이": 6131,
      "목숨": 6132,
      "독서": 6133,
      "흐르": 6134,
      "자라": 6135,
      "물가": 6136,
      "맥주": 6137,
      "해운": 6138,
      "꺼내": 6139,
      "펼치": 6140,
      "두산": 6141,
      "초청": 6142,
      "비리": 6143,
      "녀석": 6144,
      "끝내": 6145,
      "판사": 6146,
      "자아": 6147,
      "미안": 6148,
      "면접": 6149,
      "사법": 6150,
      "경고": 6151,
      "방어": 6152,
      "용기": 6153,
      "에이": 6154,
      "선박": 6155,
      "변동": 6156,
      "인정받": 6157,
      "초대": 6158,
      "하고": 6159,
      "노무": 6160,
      "호흡": 6161,
      "이행": 6162,
      "다운": 6163,
      "아우": 6164,
      "여수": 6165,
      "##회사": 6166,
      "공산": 6167,
      "몰라": 6168,
      "조언": 6169,
      "법정": 6170,
      "일종": 6171,
      "관찰": 6172,
      "##란히": 6173,
      "피하": 6174,
      "줘야": 6175,
      "##은이": 6176,
      "##교육": 6177,
      "문제점": 6178,
      "걸리": 6179,
      "경력": 6180,
      "대가": 6181,
      "인원": 6182,
      "순환": 6183,
      "점유": 6184,
      "구하": 6185,
      "##어도": 6186,
      "광역": 6187,
      "##세대": 6188,
      "나름": 6189,
      "완료": 6190,
      "CEO": 6191,
      "가난": 6192,
      "##id": 6193,
      "기아": 6194,
      "상업": 6195,
      "저지": 6196,
      "숫자": 6197,
      "마주": 6198,
      "잠재": 6199,
      "사원": 6200,
      "편성": 6201,
      "차단": 6202,
      "성향": 6203,
      "학문": 6204,
      "자살": 6205,
      "저렴": 6206,
      "떨어졌": 6207,
      "노출": 6208,
      "이스": 6209,
      "##티브": 6210,
      "포장": 6211,
      "이사장": 6212,
      "실행": 6213,
      "데뷔": 6214,
      "제약": 6215,
      "증명": 6216,
      "흔히": 6217,
      "침체": 6218,
      "가동": 6219,
      "당했": 6220,
      "드러나": 6221,
      "중학교": 6222,
      "회계": 6223,
      "미사일": 6224,
      "자네": 6225,
      "아이템": 6226,
      "느꼈": 6227,
      "##ul": 6228,
      "작전": 6229,
      "##워서": 6230,
      "사물": 6231,
      "수시": 6232,
      "##으로": 6233,
      "com": 6234,
      "실업": 6235,
      "복귀": 6236,
      "파트": 6237,
      "가끔": 6238,
      "극장": 6239,
      "##친다": 6240,
      "1990": 6241,
      "신분": 6242,
      "연수": 6243,
      "데이": 6244,
      "늘리": 6245,
      "도심": 6246,
      "청장": 6247,
      "호주": 6248,
      "강원도": 6249,
      "##담회": 6250,
      "조작": 6251,
      "챔피": 6252,
      "호소": 6253,
      "57": 6254,
      "살인": 6255,
      "기원": 6256,
      "저항": 6257,
      "즐거": 6258,
      "##ce": 6259,
      "김치": 6260,
      "무릎": 6261,
      "예고": 6262,
      "사기": 6263,
      "58": 6264,
      "문장": 6265,
      "이틀": 6266,
      "더라구요": 6267,
      "이루어지": 6268,
      "나타내": 6269,
      "견해": 6270,
      "특허": 6271,
      "답변": 6272,
      "적합": 6273,
      "부과": 6274,
      "전북": 6275,
      "해방": 6276,
      "양식": 6277,
      "취득": 6278,
      "채택": 6279,
      "형제": 6280,
      "황제": 6281,
      "커다란": 6282,
      "진술": 6283,
      "커지": 6284,
      "심의": 6285,
      "결제": 6286,
      "##NS": 6287,
      "조명": 6288,
      "지주": 6289,
      "농민": 6290,
      "만남": 6291,
      "과목": 6292,
      "사라지": 6293,
      "무려": 6294,
      "##마디": 6295,
      "##플레이": 6296,
      "예약": 6297,
      "상위": 6298,
      "##카드": 6299,
      "득점": 6300,
      "##까요": 6301,
      "총회": 6302,
      "고소": 6303,
      "잠깐": 6304,
      "시사": 6305,
      "##um": 6306,
      "부실": 6307,
      "대북": 6308,
      "보관": 6309,
      "연예": 6310,
      "오랫": 6311,
      "지하철": 6312,
      "잇따": 6313,
      "##ers": 6314,
      "감시": 6315,
      "리라": 6316,
      "질병": 6317,
      "며칠": 6318,
      "프리미엄": 6319,
      "신호": 6320,
      "아무것": 6321,
      "주주": 6322,
      "협정": 6323,
      "바이오": 6324,
      "는다고": 6325,
      "대구시": 6326,
      "소문": 6327,
      "근처": 6328,
      "계열사": 6329,
      "식물": 6330,
      "백성": 6331,
      "독특": 6332,
      "들어서": 6333,
      "FTA": 6334,
      "로마": 6335,
      "사퇴": 6336,
      "배제": 6337,
      "무서": 6338,
      "몰려": 6339,
      "토대": 6340,
      "##버스": 6341,
      "아니면": 6342,
      "페이스": 6343,
      "천안": 6344,
      "방해": 6345,
      "창의": 6346,
      "각자": 6347,
      "학기": 6348,
      "지나치": 6349,
      "64": 6350,
      "##os": 6351,
      "환율": 6352,
      "오바": 6353,
      "스토리": 6354,
      "늘어난": 6355,
      "마감": 6356,
      "교육감": 6357,
      "발사": 6358,
      "객관": 6359,
      "알려진": 6360,
      "간담회": 6361,
      "세종": 6362,
      "##IA": 6363,
      "거론": 6364,
      "##ay": 6365,
      "##조건": 6366,
      "2001": 6367,
      "본사": 6368,
      "동부": 6369,
      "공화": 6370,
      "적자": 6371,
      "풍경": 6372,
      "시청자": 6373,
      "보완": 6374,
      "##ve": 6375,
      "더라고요": 6376,
      "심판": 6377,
      "부위": 6378,
      "수영": 6379,
      "PC": 6380,
      "평등": 6381,
      "이념": 6382,
      "라운드": 6383,
      "##총리": 6384,
      "스페인": 6385,
      "오랫동안": 6386,
      "거두": 6387,
      "경비": 6388,
      "수수료": 6389,
      "상인": 6390,
      "당한": 6391,
      "초점": 6392,
      "신한": 6393,
      "일대": 6394,
      "증시": 6395,
      "##해서": 6396,
      "강사": 6397,
      "##조합": 6398,
      "장사": 6399,
      "##철수": 6400,
      "지위": 6401,
      "정하": 6402,
      "할아버지": 6403,
      "내내": 6404,
      "63": 6405,
      "성남": 6406,
      "의학": 6407,
      "##로운": 6408,
      "호남": 6409,
      "모으": 6410,
      "농촌": 6411,
      "만일": 6412,
      "에다": 6413,
      "##르트": 6414,
      "마이": 6415,
      "생물": 6416,
      "바른": 6417,
      "조례": 6418,
      "대결": 6419,
      "알려져": 6420,
      "어쩔": 6421,
      "원하": 6422,
      "신라": 6423,
      "##뜨리": 6424,
      "반도체": 6425,
      "교환": 6426,
      "인용": 6427,
      "##비아": 6428,
      "간다": 6429,
      "파견": 6430,
      "포럼": 6431,
      "로써": 6432,
      "들이": 6433,
      "85": 6434,
      "마트": 6435,
      "용어": 6436,
      "84": 6437,
      "대처": 6438,
      "하여": 6439,
      "파이": 6440,
      "보일": 6441,
      "로봇": 6442,
      "에어": 6443,
      "욕망": 6444,
      "개정안": 6445,
      "대립": 6446,
      "엔진": 6447,
      "66": 6448,
      "##ut": 6449,
      "조화": 6450,
      "마침내": 6451,
      "정지": 6452,
      "무한": 6453,
      "냐는": 6454,
      "##려야": 6455,
      "절감": 6456,
      "불교": 6457,
      "그리스도": 6458,
      "지표": 6459,
      "km": 6460,
      "건데": 6461,
      "겨우": 6462,
      "사안": 6463,
      "배당": 6464,
      "배려": 6465,
      "지출": 6466,
      "##연히": 6467,
      "전원": 6468,
      "추억": 6469,
      "농협": 6470,
      "동양": 6471,
      "오바마": 6472,
      "외환": 6473,
      "에서부터": 6474,
      "부당": 6475,
      "합병": 6476,
      "돌리": 6477,
      "##학자": 6478,
      "##서트": 6479,
      "직전": 6480,
      "마당": 6481,
      "서양": 6482,
      "확신": 6483,
      "담보": 6484,
      "답니다": 6485,
      "대폭": 6486,
      "노사": 6487,
      "실무": 6488,
      "미세": 6489,
      "만날": 6490,
      "깨달": 6491,
      "##ir": 6492,
      "휴가": 6493,
      "긴급": 6494,
      "고구": 6495,
      "그래요": 6496,
      "고도": 6497,
      "현안": 6498,
      "된다면": 6499,
      "번역": 6500,
      "바람직": 6501,
      "실내": 6502,
      "72": 6503,
      "응원": 6504,
      "평창": 6505,
      "##드리": 6506,
      "테마": 6507,
      "아트": 6508,
      "##에도": 6509,
      "들어간": 6510,
      "끼리": 6511,
      "무조건": 6512,
      "십시오": 6513,
      "##일리": 6514,
      "99": 6515,
      "ㅠㅠ": 6516,
      "진료": 6517,
      "어쨌든": 6518,
      "##ap": 6519,
      "정서": 6520,
      "기지": 6521,
      "벤처": 6522,
      "눈치": 6523,
      "연령": 6524,
      "아닙니다": 6525,
      "라디오": 6526,
      "대만": 6527,
      "In": 6528,
      "장난": 6529,
      "제주도": 6530,
      "못한다": 6531,
      "테크": 6532,
      "결승": 6533,
      "파크": 6534,
      "##op": 6535,
      "##머리": 6536,
      "4000": 6537,
      "데리": 6538,
      "스피": 6539,
      "성능": 6540,
      "관측": 6541,
      "끊임없이": 6542,
      "##로스": 6543,
      "폐기": 6544,
      "노무현": 6545,
      "농가": 6546,
      "운행": 6547,
      "무게": 6548,
      "한마디": 6549,
      "600": 6550,
      "노트": 6551,
      "St": 6552,
      "고령": 6553,
      "유출": 6554,
      "융합": 6555,
      "냐고": 6556,
      "침해": 6557,
      "푸드": 6558,
      "접촉": 6559,
      "##ew": 6560,
      "왼쪽": 6561,
      "뜨거운": 6562,
      "충돌": 6563,
      "호기": 6564,
      "기름": 6565,
      "단속": 6566,
      "변하": 6567,
      "손가락": 6568,
      "영혼": 6569,
      "선임": 6570,
      "가시": 6571,
      "일으키": 6572,
      "이정": 6573,
      "타격": 6574,
      "##레기": 6575,
      "김성": 6576,
      "안철수": 6577,
      "키로": 6578,
      "익숙": 6579,
      "박정": 6580,
      "교실": 6581,
      "수치": 6582,
      "는다면": 6583,
      "고대": 6584,
      "협조": 6585,
      "61": 6586,
      "정착": 6587,
      "##ity": 6588,
      "편리": 6589,
      "캠페인": 6590,
      "적어도": 6591,
      "위대": 6592,
      "테러": 6593,
      "한정": 6594,
      "통증": 6595,
      "개설": 6596,
      "연관": 6597,
      "상임": 6598,
      "수주": 6599,
      "깜짝": 6600,
      "간부": 6601,
      "집계": 6602,
      "세포": 6603,
      "리더십": 6604,
      "국내외": 6605,
      "라서": 6606,
      "미만": 6607,
      "근육": 6608,
      "kr": 6609,
      "상하": 6610,
      "출입": 6611,
      "와인": 6612,
      "드러났": 6613,
      "쓰레기": 6614,
      "청약": 6615,
      "홍콩": 6616,
      "##웨어": 6617,
      "나눔": 6618,
      "도대": 6619,
      "##러지": 6620,
      "브라질": 6621,
      "구청": 6622,
      "용인": 6623,
      "##oc": 6624,
      "그치": 6625,
      "지혜": 6626,
      "촉진": 6627,
      "보존": 6628,
      "느낀": 6629,
      "도망": 6630,
      "장군": 6631,
      "##바닥": 6632,
      "목사": 6633,
      "하우스": 6634,
      "신앙": 6635,
      "네이": 6636,
      "지켜보": 6637,
      "달하": 6638,
      "걸려": 6639,
      "영향력": 6640,
      "도대체": 6641,
      "권위": 6642,
      "1980": 6643,
      "맞이": 6644,
      "끝난": 6645,
      "플러스": 6646,
      "계급": 6647,
      "런던": 6648,
      "무렵": 6649,
      "인민": 6650,
      "중대": 6651,
      "선진국": 6652,
      "유아": 6653,
      "손님": 6654,
      "쉬운": 6655,
      "보편": 6656,
      "일어난": 6657,
      "선두": 6658,
      "고맙": 6659,
      "몰아": 6660,
      "창작": 6661,
      "선사": 6662,
      "중공업": 6663,
      "브리": 6664,
      "콘서트": 6665,
      "가계": 6666,
      "신선": 6667,
      "##건설": 6668,
      "대강": 6669,
      "적응": 6670,
      "고생": 6671,
      "감성": 6672,
      "무너": 6673,
      "##권자": 6674,
      "곧바로": 6675,
      "열린다": 6676,
      "62": 6677,
      "불가피": 6678,
      "뮤지컬": 6679,
      "정치인": 6680,
      "그럼에도": 6681,
      "상가": 6682,
      "기쁨": 6683,
      "고발": 6684,
      "구상": 6685,
      "정확히": 6686,
      "부사": 6687,
      "구제": 6688,
      "고문": 6689,
      "문명": 6690,
      "SNS": 6691,
      "당사자": 6692,
      "살짝": 6693,
      "##단지": 6694,
      "유니": 6695,
      "국정원": 6696,
      "없애": 6697,
      "피아": 6698,
      "벌어지": 6699,
      "소수": 6700,
      "적당": 6701,
      "명품": 6702,
      "컨설": 6703,
      "프레": 6704,
      "디스": 6705,
      "초과": 6706,
      "천연": 6707,
      "일치": 6708,
      "좌우": 6709,
      "민원": 6710,
      "앨범": 6711,
      "성명": 6712,
      "##니어": 6713,
      "신기": 6714,
      "IC": 6715,
      "획득": 6716,
      "공주": 6717,
      "정식": 6718,
      "구성원": 6719,
      "CJ": 6720,
      "##지사": 6721,
      "선보이": 6722,
      "유학": 6723,
      "임기": 6724,
      "고전": 6725,
      "입법": 6726,
      "건조": 6727,
      "사로": 6728,
      "직무": 6729,
      "##ED": 6730,
      "##가스": 6731,
      "지대": 6732,
      "##웨이": 6733,
      "추석": 6734,
      "오른쪽": 6735,
      "퇴직": 6736,
      "68": 6737,
      "단장": 6738,
      "대법원": 6739,
      "##거렸": 6740,
      "그렇지만": 6741,
      "수집": 6742,
      "##래도": 6743,
      "양국": 6744,
      "공학": 6745,
      "유발": 6746,
      "진화": 6747,
      "파업": 6748,
      "항목": 6749,
      "해명": 6750,
      "수리": 6751,
      "##ㅋㅋㅋㅋ": 6752,
      "다름": 6753,
      "보급": 6754,
      "내린": 6755,
      "한참": 6756,
      "급증": 6757,
      "가볍": 6758,
      "든다": 6759,
      "소위": 6760,
      "알아보": 6761,
      "뒤집": 6762,
      "비정": 6763,
      "트렌": 6764,
      "욕구": 6765,
      "사령": 6766,
      "어려워": 6767,
      "확실히": 6768,
      "67": 6769,
      "비서": 6770,
      "주최": 6771,
      "입지": 6772,
      "취약": 6773,
      "올린": 6774,
      "김종": 6775,
      "젊은이": 6776,
      "박람": 6777,
      "##레이드": 6778,
      "계시": 6779,
      "줄어": 6780,
      "아닐까": 6781,
      "##카오": 6782,
      "에겐": 6783,
      "동력": 6784,
      "현행": 6785,
      "신속": 6786,
      "훼손": 6787,
      "주자": 6788,
      "되돌": 6789,
      "연설": 6790,
      "한번": 6791,
      "입시": 6792,
      "선도": 6793,
      "일어났": 6794,
      "인문": 6795,
      "시범": 6796,
      "아라": 6797,
      "대학원": 6798,
      "스위": 6799,
      "##스티": 6800,
      "더군": 6801,
      "찬성": 6802,
      "야권": 6803,
      "남기": 6804,
      "아저": 6805,
      "##스토": 6806,
      "이중": 6807,
      "조달": 6808,
      "임직원": 6809,
      "죽이": 6810,
      "유대": 6811,
      "1997": 6812,
      "1998": 6813,
      "##러진": 6814,
      "아프리카": 6815,
      "주행": 6816,
      "싸우": 6817,
      "챔피언": 6818,
      "1999": 6819,
      "최소한": 6820,
      "구미": 6821,
      "과도": 6822,
      "용역": 6823,
      "청문": 6824,
      "자본주의": 6825,
      "아웃": 6826,
      "만화": 6827,
      "##im": 6828,
      "경기장": 6829,
      "빠진": 6830,
      "출산": 6831,
      "즉시": 6832,
      "모색": 6833,
      "그대": 6834,
      "화성": 6835,
      "가만": 6836,
      "개봉": 6837,
      "빼앗": 6838,
      "아저씨": 6839,
      "가방": 6840,
      "사로잡": 6841,
      "자문": 6842,
      "수백": 6843,
      "##나다": 6844,
      "법무": 6845,
      "일자": 6846,
      "천천": 6847,
      "##영상": 6848,
      "침대": 6849,
      "입증": 6850,
      "논쟁": 6851,
      "품목": 6852,
      "한가": 6853,
      "아무래도": 6854,
      "거짓말": 6855,
      "멈추": 6856,
      "결의": 6857,
      "일방": 6858,
      "진주": 6859,
      "GS": 6860,
      "어울리": 6861,
      "95": 6862,
      "한지": 6863,
      "천천히": 6864,
      "##힌다": 6865,
      "강연": 6866,
      "들어왔": 6867,
      "전주": 6868,
      "어쩌면": 6869,
      "고유": 6870,
      "아마도": 6871,
      "주간": 6872,
      "오직": 6873,
      "191": 6874,
      "결심": 6875,
      "도구": 6876,
      "입찰": 6877,
      "신학": 6878,
      "은퇴": 6879,
      "거치": 6880,
      "의자": 6881,
      "유행": 6882,
      "트위": 6883,
      "여의": 6884,
      "묘사": 6885,
      "굳이": 6886,
      "감염": 6887,
      "칭찬": 6888,
      "테이블": 6889,
      "경매": 6890,
      "6000": 6891,
      "경찰서": 6892,
      "장학": 6893,
      "##생활": 6894,
      "불렀": 6895,
      "##도로": 6896,
      "나타난": 6897,
      "기금": 6898,
      "뚜렷": 6899,
      "과일": 6900,
      "여서": 6901,
      "장식": 6902,
      "휴식": 6903,
      "남부": 6904,
      "재능": 6905,
      "제자": 6906,
      "이어졌": 6907,
      "섬유": 6908,
      "기운": 6909,
      "이용자": 6910,
      "상무": 6911,
      "상실": 6912,
      "정성": 6913,
      "고마": 6914,
      "음료": 6915,
      "연봉": 6916,
      "스케": 6917,
      "때로": 6918,
      "흡수": 6919,
      "트리": 6920,
      "물류": 6921,
      "복원": 6922,
      "전해졌": 6923,
      "어두": 6924,
      "미친": 6925,
      "담긴": 6926,
      "당부": 6927,
      "너희": 6928,
      "노후": 6929,
      "박지": 6930,
      "##마스": 6931,
      "이혼": 6932,
      "분쟁": 6933,
      "미니": 6934,
      "일시": 6935,
      "존중": 6936,
      "금메달": 6937,
      "8000": 6938,
      "##온다": 6939,
      "선출": 6940,
      "##그룹": 6941,
      "군수": 6942,
      "밀려": 6943,
      "통보": 6944,
      "예금": 6945,
      "74": 6946,
      "플랫": 6947,
      "구현": 6948,
      "떠오르": 6949,
      "도내": 6950,
      "재생": 6951,
      "집권": 6952,
      "문서": 6953,
      "소외": 6954,
      "##항공": 6955,
      "안팎": 6956,
      "##시다": 6957,
      "김태": 6958,
      "지리": 6959,
      "진리": 6960,
      "돼요": 6961,
      "남겨": 6962,
      "음성": 6963,
      "계좌": 6964,
      "저장": 6965,
      "##규직": 6966,
      "김해": 6967,
      "재건": 6968,
      "쳐다보": 6969,
      "믿음": 6970,
      "800": 6971,
      "가공": 6972,
      "부활": 6973,
      "시계": 6974,
      "73": 6975,
      "텔레콤": 6976,
      "##문화": 6977,
      "편하": 6978,
      "변수": 6979,
      "71": 6980,
      "비정규직": 6981,
      "##다리": 6982,
      "황금": 6983,
      "인연": 6984,
      "구도": 6985,
      "한쪽": 6986,
      "##어버": 6987,
      "신부": 6988,
      "신중": 6989,
      "연맹": 6990,
      "가질": 6991,
      "좋아하": 6992,
      "부딪": 6993,
      "현황": 6994,
      "77": 6995,
      "골목": 6996,
      "타당": 6997,
      "참조": 6998,
      "소형": 6999,
      "을까요": 7000,
      "극단": 7001,
      "급격": 7002,
      "고양이": 7003,
      "빌려": 7004,
      "그나": 7005,
      "국방부": 7006,
      "축하": 7007,
      "출근": 7008,
      "병사": 7009,
      "파워": 7010,
      "수지": 7011,
      "필자": 7012,
      "갈수록": 7013,
      "급여": 7014,
      "셋째": 7015,
      "지도부": 7016,
      "동영상": 7017,
      "120": 7018,
      "점포": 7019,
      "워낙": 7020,
      "공헌": 7021,
      "최우": 7022,
      "이스라": 7023,
      "가상": 7024,
      "요건": 7025,
      "이리": 7026,
      "이걸": 7027,
      "그쳤": 7028,
      "챙겨": 7029,
      "올바": 7030,
      "군인": 7031,
      "한때": 7032,
      "충족": 7033,
      "##and": 7034,
      "지연": 7035,
      "입구": 7036,
      "민중": 7037,
      "##워하": 7038,
      "192": 7039,
      "트위터": 7040,
      "태어나": 7041,
      "커뮤니케이션": 7042,
      "저런": 7043,
      "Ch": 7044,
      "취급": 7045,
      "비행기": 7046,
      "화장실": 7047,
      "높여": 7048,
      "폐쇄": 7049,
      "블루": 7050,
      "이스라엘": 7051,
      "to": 7052,
      "배상": 7053,
      "김정은": 7054,
      "이슬": 7055,
      "서명": 7056,
      "온도": 7057,
      "안심": 7058,
      "양상": 7059,
      "진지": 7060,
      "흔적": 7061,
      "국어": 7062,
      "대목": 7063,
      "데려": 7064,
      "무척": 7065,
      "캐나다": 7066,
      "청사": 7067,
      "세웠": 7068,
      "저기": 7069,
      "여섯": 7070,
      "박람회": 7071,
      "##증권": 7072,
      "영웅": 7073,
      "매출액": 7074,
      "동남": 7075,
      "바위": 7076,
      "사단": 7077,
      "둘러싼": 7078,
      "의해서": 7079,
      "드릴": 7080,
      "시달": 7081,
      "김대": 7082,
      "종시": 7083,
      "유로": 7084,
      "차관": 7085,
      "주차장": 7086,
      "전후": 7087,
      "##th": 7088,
      "69": 7089,
      "심하": 7090,
      "여겨": 7091,
      "진영": 7092,
      "아가": 7093,
      "우울": 7094,
      "도쿄": 7095,
      "의정": 7096,
      "경영자": 7097,
      "공인": 7098,
      "열렸": 7099,
      "장르": 7100,
      "될지": 7101,
      "코치": 7102,
      "철강": 7103,
      "보험료": 7104,
      "마디": 7105,
      "상생": 7106,
      "들어와": 7107,
      "휴대폰": 7108,
      "십니까": 7109,
      "가르치": 7110,
      "유산": 7111,
      "변신": 7112,
      "##ab": 7113,
      "케이블": 7114,
      "76": 7115,
      "구글": 7116,
      "공제": 7117,
      "앞장": 7118,
      "지명": 7119,
      "각국": 7120,
      "주부": 7121,
      "타인": 7122,
      "실정": 7123,
      "농구": 7124,
      "식민": 7125,
      "입술": 7126,
      "미술관": 7127,
      "채무": 7128,
      "지나가": 7129,
      "환영": 7130,
      "평범": 7131,
      "후배": 7132,
      "셔서": 7133,
      "용품": 7134,
      "메르": 7135,
      "담겨": 7136,
      "엘리": 7137,
      "##산업": 7138,
      "구경": 7139,
      "소스": 7140,
      "평양": 7141,
      "스크": 7142,
      "비타": 7143,
      "격차": 7144,
      "연방": 7145,
      "유치원": 7146,
      "기후": 7147,
      "과세": 7148,
      "##시장": 7149,
      "##비전": 7150,
      "##낸다": 7151,
      "돌아왔": 7152,
      "나설": 7153,
      "향한": 7154,
      "##로그": 7155,
      "복수": 7156,
      "유동": 7157,
      "영장": 7158,
      "쏟아": 7159,
      "학회": 7160,
      "재벌": 7161,
      "대행": 7162,
      "지진": 7163,
      "SBS": 7164,
      "스파": 7165,
      "간접": 7166,
      "교육부": 7167,
      "모니": 7168,
      "그릇": 7169,
      "전시회": 7170,
      "새끼": 7171,
      "부작": 7172,
      "깨닫": 7173,
      "비로": 7174,
      "190": 7175,
      "체포": 7176,
      "색깔": 7177,
      "먹스": 7178,
      "기상": 7179,
      "가벼": 7180,
      "틀림": 7181,
      "일관": 7182,
      "자국": 7183,
      "##라리": 7184,
      "공략": 7185,
      "양산": 7186,
      "##게요": 7187,
      "영남": 7188,
      "체크": 7189,
      "블록": 7190,
      "이민": 7191,
      "넘어가": 7192,
      "진학": 7193,
      "이젠": 7194,
      "메이저": 7195,
      "조항": 7196,
      "참가자": 7197,
      "민감": 7198,
      "7000": 7199,
      "##ame": 7200,
      "강점": 7201,
      "뷰티": 7202,
      "사드": 7203,
      "널리": 7204,
      "으려고": 7205,
      "넘치": 7206,
      "침묵": 7207,
      "해고": 7208,
      "으시": 7209,
      "마친": 7210,
      "##덩이": 7211,
      "AI": 7212,
      "마땅": 7213,
      "부각": 7214,
      "88": 7215,
      "원주": 7216,
      "치르": 7217,
      "오해": 7218,
      "푸른": 7219,
      "KIA": 7220,
      "마법": 7221,
      "충실": 7222,
      "중도": 7223,
      "탄핵": 7224,
      "신입": 7225,
      "섭취": 7226,
      "관념": 7227,
      "중동": 7228,
      "##ra": 7229,
      "체력": 7230,
      "일기": 7231,
      "선전": 7232,
      "엄격": 7233,
      "##ie": 7234,
      "조합원": 7235,
      "거절": 7236,
      "확충": 7237,
      "적발": 7238,
      "눈앞": 7239,
      "동맹": 7240,
      "치즈": 7241,
      "##CD": 7242,
      "유권자": 7243,
      "그분": 7244,
      "##라고": 7245,
      "발전소": 7246,
      "78": 7247,
      "홀로": 7248,
      "충북": 7249,
      "영입": 7250,
      "여지": 7251,
      "어리": 7252,
      "무용": 7253,
      "진심": 7254,
      "02": 7255,
      "대개": 7256,
      "패턴": 7257,
      "관세": 7258,
      "던가": 7259,
      "무사": 7260,
      "정작": 7261,
      "##우드": 7262,
      "살려": 7263,
      "환상": 7264,
      "충청": 7265,
      "##크스": 7266,
      "주기": 7267,
      "갤럭": 7268,
      "개헌": 7269,
      "카카오": 7270,
      "유력": 7271,
      "날아": 7272,
      "법칙": 7273,
      "부끄": 7274,
      "갤럭시": 7275,
      "총괄": 7276,
      "상환": 7277,
      "구원": 7278,
      "700": 7279,
      "맞서": 7280,
      "문화재": 7281,
      "우유": 7282,
      "동해": 7283,
      "불행": 7284,
      "##들이": 7285,
      "종종": 7286,
      "해질": 7287,
      "##회의": 7288,
      "시급": 7289,
      "붙여": 7290,
      "파티": 7291,
      "패배": 7292,
      "봐도": 7293,
      "마이크": 7294,
      "진로": 7295,
      "이주": 7296,
      "연료": 7297,
      "초래": 7298,
      "전당": 7299,
      "징역": 7300,
      "배달": 7301,
      "받아들여": 7302,
      "진흥": 7303,
      "장수": 7304,
      "붙잡": 7305,
      "온갖": 7306,
      "대상자": 7307,
      "개통": 7308,
      "반성": 7309,
      "드디어": 7310,
      "스카": 7311,
      "대거": 7312,
      "보여준다": 7313,
      "##컨대": 7314,
      "##거래": 7315,
      "##립니다": 7316,
      "종료": 7317,
      "강요": 7318,
      "중반": 7319,
      "한층": 7320,
      "심한": 7321,
      "##ea": 7322,
      "스런": 7323,
      "봅니다": 7324,
      "페이스북": 7325,
      "상사": 7326,
      "컨설팅": 7327,
      "계단": 7328,
      "##CC": 7329,
      "2020": 7330,
      "동작": 7331,
      "##디션": 7332,
      "언젠": 7333,
      "실망": 7334,
      "체육관": 7335,
      "어둠": 7336,
      "무언": 7337,
      "파트너": 7338,
      "우리나라": 7339,
      "욕심": 7340,
      "##PG": 7341,
      "도약": 7342,
      "계절": 7343,
      "압력": 7344,
      "박스": 7345,
      "시킨다": 7346,
      "까닭": 7347,
      "시정": 7348,
      "수분": 7349,
      "세부": 7350,
      "베스트": 7351,
      "징계": 7352,
      "##져야": 7353,
      "엑스": 7354,
      "재개": 7355,
      "으리": 7356,
      "두드": 7357,
      "의뢰": 7358,
      "탄력": 7359,
      "산하": 7360,
      "텔레비전": 7361,
      "재배": 7362,
      "중구": 7363,
      "클래식": 7364,
      "철저히": 7365,
      "플라": 7366,
      "자신감": 7367,
      "모았": 7368,
      "이닝": 7369,
      "주석": 7370,
      "##브리": 7371,
      "소요": 7372,
      "동화": 7373,
      "스키": 7374,
      "##TV": 7375,
      "승진": 7376,
      "방학": 7377,
      "비타민": 7378,
      "내려가": 7379,
      "공시": 7380,
      "화물": 7381,
      "##총장": 7382,
      "통치": 7383,
      "경찰청": 7384,
      "기법": 7385,
      "비로소": 7386,
      "신세계": 7387,
      "광주시": 7388,
      "당황": 7389,
      "가요": 7390,
      "두려움": 7391,
      "하여금": 7392,
      "촛불": 7393,
      "1995": 7394,
      "즉각": 7395,
      "몇몇": 7396,
      "감상": 7397,
      "처지": 7398,
      "왜곡": 7399,
      "청문회": 7400,
      "금방": 7401,
      "교장": 7402,
      "고리": 7403,
      "붕괴": 7404,
      "토론회": 7405,
      "개척": 7406,
      "세운": 7407,
      "성취": 7408,
      "가입자": 7409,
      "오프": 7410,
      "육체": 7411,
      "당당": 7412,
      "전지": 7413,
      "사이버": 7414,
      "오피스": 7415,
      "##천시": 7416,
      "심화": 7417,
      "수급": 7418,
      "꿈꾸": 7419,
      "신발": 7420,
      "문의": 7421,
      "내면": 7422,
      "구별": 7423,
      "##어질": 7424,
      "줄여": 7425,
      "어려울": 7426,
      "벌였": 7427,
      "들리": 7428,
      "##하우": 7429,
      "영광": 7430,
      "##어놓": 7431,
      "PD": 7432,
      "##수수": 7433,
      "영화제": 7434,
      "내수": 7435,
      "깔끔": 7436,
      "과감": 7437,
      "모니터": 7438,
      "어우": 7439,
      "금속": 7440,
      "허위": 7441,
      "장악": 7442,
      "재판부": 7443,
      "순서": 7444,
      "유입": 7445,
      "원정": 7446,
      "앞둔": 7447,
      "멋진": 7448,
      "오랜만": 7449,
      "기대감": 7450,
      "외면": 7451,
      "임신": 7452,
      "테스트": 7453,
      "트렌드": 7454,
      "즐겁": 7455,
      "98": 7456,
      "참사": 7457,
      "##아리": 7458,
      "특유": 7459,
      "성폭": 7460,
      "##나이": 7461,
      "역전": 7462,
      "경상": 7463,
      "치킨": 7464,
      "손상": 7465,
      "도달": 7466,
      "##이브": 7467,
      "합류": 7468,
      "지지율": 7469,
      "한숨": 7470,
      "##본다": 7471,
      "##사고": 7472,
      "고백": 7473,
      "디스플레이": 7474,
      "기재": 7475,
      "기아차": 7476,
      "상당수": 7477,
      "재밌": 7478,
      "박수": 7479,
      "그나마": 7480,
      "충전": 7481,
      "화이트": 7482,
      "풀이": 7483,
      "합동": 7484,
      "##려서": 7485,
      "사회주의": 7486,
      "해군": 7487,
      "##하여": 7488,
      "그야": 7489,
      "재난": 7490,
      "규명": 7491,
      "갖춰": 7492,
      "예외": 7493,
      "당일": 7494,
      "의결": 7495,
      "언젠가": 7496,
      "이른다": 7497,
      "원가": 7498,
      "추적": 7499,
      "1970": 7500,
      "인데요": 7501,
      "상승세": 7502,
      "밴드": 7503,
      "EU": 7504,
      "자세히": 7505,
      "고수": 7506,
      "매주": 7507,
      "정수": 7508,
      "설문": 7509,
      "포스트": 7510,
      "꼼꼼": 7511,
      "대금": 7512,
      "비평": 7513,
      "강도": 7514,
      "서부": 7515,
      "소음": 7516,
      "관료": 7517,
      "사업비": 7518,
      "마크": 7519,
      "가깝": 7520,
      "##ver": 7521,
      "동구": 7522,
      "입니까": 7523,
      "아름답": 7524,
      "##퍼스": 7525,
      "##저히": 7526,
      "농사": 7527,
      "떠났": 7528,
      "마라": 7529,
      "형상": 7530,
      "방사": 7531,
      "매니": 7532,
      "산책": 7533,
      "존경": 7534,
      "시골": 7535,
      "바깥": 7536,
      "리조": 7537,
      "작동": 7538,
      "식단": 7539,
      "랜드": 7540,
      "후기": 7541,
      "상공": 7542,
      "답답": 7543,
      "빠졌": 7544,
      "이종": 7545,
      "억제": 7546,
      "소프트웨어": 7547,
      "극대": 7548,
      "흘리": 7549,
      "도민": 7550,
      "김동": 7551,
      "##ram": 7552,
      "향하": 7553,
      "##IS": 7554,
      "레드": 7555,
      "##30": 7556,
      "보육": 7557,
      "무관": 7558,
      "관절": 7559,
      "##번에": 7560,
      "81": 7561,
      "아시": 7562,
      "행보": 7563,
      "임무": 7564,
      "압도": 7565,
      "##레인": 7566,
      "들어갈": 7567,
      "제조업": 7568,
      "82": 7569,
      "학술": 7570,
      "즐거움": 7571,
      "면세": 7572,
      "부사장": 7573,
      "##리스트": 7574,
      "케어": 7575,
      "쇼핑몰": 7576,
      "원고": 7577,
      "간호": 7578,
      "co": 7579,
      "귀여": 7580,
      "회관": 7581,
      "건가": 7582,
      "이어질": 7583,
      "CC": 7584,
      "신인": 7585,
      "김현": 7586,
      "위로": 7587,
      "공중": 7588,
      "자존": 7589,
      "옮기": 7590,
      "걸렸": 7591,
      "최적": 7592,
      "79": 7593,
      "증대": 7594,
      "모를": 7595,
      "특검": 7596,
      "탈출": 7597,
      "해제": 7598,
      "가전": 7599,
      "노하우": 7600,
      "동북": 7601,
      "로드": 7602,
      "건전": 7603,
      "##관리": 7604,
      "베이징": 7605,
      "대륙": 7606,
      "태어난": 7607,
      "한미": 7608,
      "유해": 7609,
      "가해": 7610,
      "채워": 7611,
      "중점": 7612,
      "고사": 7613,
      "동참": 7614,
      "착수": 7615,
      "산업단지": 7616,
      "##긴다": 7617,
      "탄소": 7618,
      "아끼": 7619,
      "짐작": 7620,
      "마사": 7621,
      "##ion": 7622,
      "나간": 7623,
      "용서": 7624,
      "##소득": 7625,
      "1996": 7626,
      "대외": 7627,
      "확률": 7628,
      "판정": 7629,
      "돌아온": 7630,
      "##단체": 7631,
      "타이어": 7632,
      "##렇게": 7633,
      "##든지": 7634,
      "신비": 7635,
      "였으며": 7636,
      "끄덕": 7637,
      "연예인": 7638,
      "선보였": 7639,
      "앞세": 7640,
      "북부": 7641,
      "운송": 7642,
      "끌어올": 7643,
      "그간": 7644,
      "구멍": 7645,
      "봐요": 7646,
      "형편": 7647,
      "안타까": 7648,
      "보전": 7649,
      "탐구": 7650,
      "넘겨": 7651,
      "비디오": 7652,
      "각오": 7653,
      "참으로": 7654,
      "원자력": 7655,
      "놓여": 7656,
      "급식": 7657,
      "성실": 7658,
      "소련": 7659,
      "데일리": 7660,
      "지침": 7661,
      "일각": 7662,
      "대체로": 7663,
      "IM": 7664,
      "실시간": 7665,
      "어르": 7666,
      "모래": 7667,
      "유연": 7668,
      "MB": 7669,
      "막대": 7670,
      "연휴": 7671,
      "##의자": 7672,
      "다를": 7673,
      "더구나": 7674,
      "선교": 7675,
      "핸드": 7676,
      "특화": 7677,
      "다스": 7678,
      "대량": 7679,
      "부작용": 7680,
      "##ff": 7681,
      "잡지": 7682,
      "##로지": 7683,
      "상식": 7684,
      "증권사": 7685,
      "위상": 7686,
      "가사": 7687,
      "운전자": 7688,
      "애정": 7689,
      "돼서": 7690,
      "소금": 7691,
      "86": 7692,
      "예쁘": 7693,
      "폭행": 7694,
      "자발": 7695,
      "오가": 7696,
      "빌딩": 7697,
      "중독": 7698,
      "유전자": 7699,
      "독재": 7700,
      "격려": 7701,
      "##르크": 7702,
      "반박": 7703,
      "부드럽": 7704,
      "메모": 7705,
      "돌아보": 7706,
      "지인": 7707,
      "일원": 7708,
      "고르": 7709,
      "비하": 7710,
      "코드": 7711,
      "##ㅠㅠㅠㅠ": 7712,
      "##둘러": 7713,
      "상금": 7714,
      "공고": 7715,
      "준공": 7716,
      "가속": 7717,
      "한강": 7718,
      "전파": 7719,
      "하얀": 7720,
      "농산물": 7721,
      "인천시": 7722,
      "해진다": 7723,
      "분열": 7724,
      "87": 7725,
      "잡아": 7726,
      "##랑이": 7727,
      "이룬": 7728,
      "미칠": 7729,
      "본래": 7730,
      "##포르": 7731,
      "올바른": 7732,
      "고구려": 7733,
      "진상": 7734,
      "202": 7735,
      "일어": 7736,
      "가맹": 7737,
      "연애": 7738,
      "저작": 7739,
      "가만히": 7740,
      "그야말로": 7741,
      "##tt": 7742,
      "일본인": 7743,
      "완공": 7744,
      "리조트": 7745,
      "name": 7746,
      "무장": 7747,
      "9000": 7748,
      "명성": 7749,
      "소지": 7750,
      "비대": 7751,
      "매치": 7752,
      "호수": 7753,
      "매도": 7754,
      "해상": 7755,
      "1994": 7756,
      "댓글": 7757,
      "비례": 7758,
      "높였": 7759,
      "##아이": 7760,
      "특별히": 7761,
      "소환": 7762,
      "##어진다": 7763,
      "연상": 7764,
      "아이폰": 7765,
      "시중": 7766,
      "부산시": 7767,
      "라이프": 7768,
      "전설": 7769,
      "금호": 7770,
      "냉장": 7771,
      "어머": 7772,
      "수천": 7773,
      "국당": 7774,
      "지불": 7775,
      "눈빛": 7776,
      "상자": 7777,
      "##트리": 7778,
      "이마트": 7779,
      "차기": 7780,
      "##시코": 7781,
      "메이크": 7782,
      "살아남": 7783,
      "연인": 7784,
      "96": 7785,
      "만기": 7786,
      "##져서": 7787,
      "이럴": 7788,
      "시상": 7789,
      "아메": 7790,
      "건지": 7791,
      "하위": 7792,
      "이모": 7793,
      "기울이": 7794,
      "떠난": 7795,
      "##운동": 7796,
      "아픈": 7797,
      "친절": 7798,
      "슬픔": 7799,
      "##스티벌": 7800,
      "먼지": 7801,
      "골프장": 7802,
      "중시": 7803,
      "##다수": 7804,
      "페스티벌": 7805,
      "포스": 7806,
      "일지": 7807,
      "실태": 7808,
      "워크": 7809,
      "어르신": 7810,
      "##ard": 7811,
      "평택": 7812,
      "열차": 7813,
      "이슬람": 7814,
      "97": 7815,
      "머릿": 7816,
      "최상": 7817,
      "유용": 7818,
      "서술": 7819,
      "필리": 7820,
      "비서관": 7821,
      "죄송": 7822,
      "걸로": 7823,
      "명단": 7824,
      "강릉": 7825,
      "달아": 7826,
      "신장": 7827,
      "농장": 7828,
      "돋보": 7829,
      "구름": 7830,
      "남쪽": 7831,
      "##TE": 7832,
      "예쁜": 7833,
      "붙이": 7834,
      "걸린": 7835,
      "맥락": 7836,
      "비싼": 7837,
      "노리": 7838,
      "독점": 7839,
      "신임": 7840,
      "##바지": 7841,
      "세탁": 7842,
      "일곱": 7843,
      "태국": 7844,
      "착용": 7845,
      "보조금": 7846,
      "배터리": 7847,
      "원천": 7848,
      "코너": 7849,
      "따지": 7850,
      "수록": 7851,
      "허락": 7852,
      "챙기": 7853,
      "지부": 7854,
      "용지": 7855,
      "##ia": 7856,
      "난다": 7857,
      "도발": 7858,
      "금강": 7859,
      "감자": 7860,
      "가이드": 7861,
      "주소": 7862,
      "김재": 7863,
      "명칭": 7864,
      "다가오": 7865,
      "코스피": 7866,
      "넘기": 7867,
      "조용히": 7868,
      "거친": 7869,
      "안양": 7870,
      "사연": 7871,
      "모순": 7872,
      "귀국": 7873,
      "피로": 7874,
      "예능": 7875,
      "부리": 7876,
      "살해": 7877,
      "심정": 7878,
      "##리즘": 7879,
      "한창": 7880,
      "가르쳐": 7881,
      "도중": 7882,
      "회수": 7883,
      "라면서": 7884,
      "##ep": 7885,
      "##싱턴": 7886,
      "주류": 7887,
      "성립": 7888,
      "##든가": 7889,
      "83": 7890,
      "##스키": 7891,
      "부패": 7892,
      "납품": 7893,
      "##받침": 7894,
      "행정부": 7895,
      "한글": 7896,
      "혈액": 7897,
      "기조": 7898,
      "아카": 7899,
      "도청": 7900,
      "사라졌": 7901,
      "바보": 7902,
      "대대": 7903,
      "부하": 7904,
      "캠퍼스": 7905,
      "단체장": 7906,
      "91": 7907,
      "##가포르": 7908,
      "해수": 7909,
      "스승": 7910,
      "행진": 7911,
      "잇따라": 7912,
      "리얼": 7913,
      "스티": 7914,
      "여의도": 7915,
      "주먹": 7916,
      "헤어": 7917,
      "이겨": 7918,
      "줄기": 7919,
      "##tic": 7920,
      "누나": 7921,
      "##가운": 7922,
      "##스턴": 7923,
      "즐거운": 7924,
      "##처럼": 7925,
      "싱가포르": 7926,
      "##어내": 7927,
      "제고": 7928,
      "애니": 7929,
      "명절": 7930,
      "마켓": 7931,
      "한도": 7932,
      "##스탄": 7933,
      "청산": 7934,
      "치유": 7935,
      "시집": 7936,
      "가려": 7937,
      "정밀": 7938,
      "관행": 7939,
      "권고": 7940,
      "##──": 7941,
      "플랜": 7942,
      "거울": 7943,
      "수면": 7944,
      "아픔": 7945,
      "솔직히": 7946,
      "용산": 7947,
      "89": 7948,
      "줄어든": 7949,
      "무력": 7950,
      "요원": 7951,
      "게시": 7952,
      "물품": 7953,
      "납부": 7954,
      "누적": 7955,
      "만만": 7956,
      "입사": 7957,
      "마산": 7958,
      "청주": 7959,
      "해안": 7960,
      "책상": 7961,
      "연평": 7962,
      "에는": 7963,
      "##바람": 7964,
      "생생": 7965,
      "최악": 7966,
      "위축": 7967,
      "라니": 7968,
      "무언가": 7969,
      "##디아": 7970,
      "전담": 7971,
      "##iv": 7972,
      "태평": 7973,
      "당원": 7974,
      "##풀이": 7975,
      "낮추": 7976,
      "후회": 7977,
      "한두": 7978,
      "국세": 7979,
      "정면": 7980,
      "둘러싸": 7981,
      "st": 7982,
      "늘어났": 7983,
      "바닷": 7984,
      "아쉽": 7985,
      "시공": 7986,
      "감추": 7987,
      "개소": 7988,
      "월급": 7989,
      "차라리": 7990,
      "천억": 7991,
      "FC": 7992,
      "250": 7993,
      "마쳤": 7994,
      "180": 7995,
      "고시": 7996,
      "표면": 7997,
      "애초": 7998,
      "뛰어나": 7999,
      "무선": 8000,
      "##루션": 8001,
      "먹이": 8002,
      "와이": 8003,
      "김진": 8004,
      "실체": 8005,
      "명백": 8006,
      "선보인다": 8007,
      "김상": 8008,
      "학력": 8009,
      "##ke": 8010,
      "오페": 8011,
      "일반인": 8012,
      "빨간": 8013,
      "클린": 8014,
      "나란히": 8015,
      "메이크업": 8016,
      "워싱턴": 8017,
      "비극": 8018,
      "국면": 8019,
      "아름다움": 8020,
      "생일": 8021,
      "얼음": 8022,
      "##바이": 8023,
      "돌입": 8024,
      "패러": 8025,
      "쓰이": 8026,
      "절실": 8027,
      "서서": 8028,
      "세미": 8029,
      "협동": 8030,
      "##먼지": 8031,
      "##로드": 8032,
      "해체": 8033,
      "글자": 8034,
      "포도": 8035,
      "조리": 8036,
      "인테": 8037,
      "되찾": 8038,
      "당분": 8039,
      "탁월": 8040,
      "대원": 8041,
      "겨냥": 8042,
      "놓치": 8043,
      "GM": 8044,
      "나타난다": 8045,
      "단원": 8046,
      "엔터": 8047,
      "모른": 8048,
      "92": 8049,
      "골라": 8050,
      "통장": 8051,
      "00": 8052,
      "발효": 8053,
      "흥분": 8054,
      "##테크": 8055,
      "사냥": 8056,
      "태양광": 8057,
      "분산": 8058,
      "전선": 8059,
      "흔들리": 8060,
      "북미": 8061,
      "자칫": 8062,
      "고집": 8063,
      "실리": 8064,
      "주저": 8065,
      "순이": 8066,
      "작곡": 8067,
      "기술력": 8068,
      "경로": 8069,
      "거래소": 8070,
      "내밀": 8071,
      "전무": 8072,
      "부가": 8073,
      "94": 8074,
      "도서": 8075,
      "모은": 8076,
      "##ail": 8077,
      "어라": 8078,
      "드림": 8079,
      "실종": 8080,
      "모시": 8081,
      "뒷받침": 8082,
      "구석": 8083,
      "##해야": 8084,
      "출석": 8085,
      "입원": 8086,
      "##느님": 8087,
      "강경": 8088,
      "미터": 8089,
      "어린이집": 8090,
      "재건축": 8091,
      "비싸": 8092,
      "채소": 8093,
      "시나": 8094,
      "방치": 8095,
      "시세": 8096,
      "됐으며": 8097,
      "스튜": 8098,
      "멕시코": 8099,
      "인테리어": 8100,
      "즐겨": 8101,
      "고추": 8102,
      "재원": 8103,
      "곤란": 8104,
      "증언": 8105,
      "내지": 8106,
      "차장": 8107,
      "양쪽": 8108,
      "춘천": 8109,
      "어떨": 8110,
      "네이버": 8111,
      "고지": 8112,
      "유혹": 8113,
      "감축": 8114,
      "어릴": 8115,
      "중국인": 8116,
      "철거": 8117,
      "향기": 8118,
      "##est": 8119,
      "##성장": 8120,
      "노예": 8121,
      "담당자": 8122,
      "pp": 8123,
      "보인": 8124,
      "드러냈": 8125,
      "이야말로": 8126,
      "실용": 8127,
      "하느님": 8128,
      "단단": 8129,
      "여권": 8130,
      "찾아보": 8131,
      "서해": 8132,
      "급속": 8133,
      "숙박": 8134,
      "##러져": 8135,
      "적정": 8136,
      "중계": 8137,
      "로스": 8138,
      "재정부": 8139,
      "채우": 8140,
      "공작": 8141,
      "##uc": 8142,
      "##ell": 8143,
      "명시": 8144,
      "분당": 8145,
      "부드러운": 8146,
      "더욱이": 8147,
      "클라": 8148,
      "의류": 8149,
      "저소득": 8150,
      "바이러스": 8151,
      "김포": 8152,
      "그리하여": 8153,
      "뇌물": 8154,
      "주방": 8155,
      "##어리": 8156,
      "사무소": 8157,
      "함유": 8158,
      "민심": 8159,
      "##어넣": 8160,
      "조만": 8161,
      "##ist": 8162,
      "출장": 8163,
      "Pr": 8164,
      "##피아": 8165,
      "기호": 8166,
      "탑재": 8167,
      "회전": 8168,
      "외모": 8169,
      "나쁘": 8170,
      "귀족": 8171,
      "강세": 8172,
      "따위": 8173,
      "배운": 8174,
      "간주": 8175,
      "##키지": 8176,
      "양자": 8177,
      "수렴": 8178,
      "놀랐": 8179,
      "포트": 8180,
      "갤러리": 8181,
      "들어온": 8182,
      "대박": 8183,
      "절망": 8184,
      "기온": 8185,
      "파일": 8186,
      "편의점": 8187,
      "철회": 8188,
      "출간": 8189,
      "위탁": 8190,
      "##ok": 8191,
      "증진": 8192,
      "##네시아": 8193,
      "퇴근": 8194,
      "프라": 8195,
      "범행": 8196,
      "쟁점": 8197,
      "놀라운": 8198,
      "대다수": 8199,
      "돌아와": 8200,
      "최신": 8201,
      "코트": 8202,
      "타워": 8203,
      "정규직": 8204,
      "김경": 8205,
      "논술": 8206,
      "##ill": 8207,
      "동서": 8208,
      "탈락": 8209,
      "그림자": 8210,
      "타운": 8211,
      "추모": 8212,
      "신사": 8213,
      "산림": 8214,
      "빛나": 8215,
      "패키지": 8216,
      "오페라": 8217,
      "원유": 8218,
      "총재": 8219,
      "사찰": 8220,
      "항의": 8221,
      "디자이너": 8222,
      "일요일": 8223,
      "발급": 8224,
      "궁극": 8225,
      "직장인": 8226,
      "조국": 8227,
      "원료": 8228,
      "93": 8229,
      "##eg": 8230,
      "부적": 8231,
      "발주": 8232,
      "자사": 8233,
      "떠올랐": 8234,
      "03": 8235,
      "김기": 8236,
      "학위": 8237,
      "생길": 8238,
      "안동": 8239,
      "못지": 8240,
      "아시안": 8241,
      "나아": 8242,
      "##스레": 8243,
      "새해": 8244,
      "기적": 8245,
      "명회": 8246,
      "모터": 8247,
      "버려": 8248,
      "호응": 8249,
      "##타인": 8250,
      "스위스": 8251,
      "면역": 8252,
      "##현진": 8253,
      "책임자": 8254,
      "세제": 8255,
      "IP": 8256,
      "##용차": 8257,
      "터미": 8258,
      "화폐": 8259,
      "심해": 8260,
      "연합회": 8261,
      "원활": 8262,
      "던데": 8263,
      "사자": 8264,
      "환경부": 8265,
      "이뤄졌": 8266,
      "이끄": 8267,
      "기차": 8268,
      "선거구": 8269,
      "명분": 8270,
      "승객": 8271,
      "오토": 8272,
      "다행히": 8273,
      "##잡이": 8274,
      "들여다보": 8275,
      "th": 8276,
      "무산": 8277,
      "누워": 8278,
      "포털": 8279,
      "은가": 8280,
      "취향": 8281,
      "면세점": 8282,
      "예컨대": 8283,
      "189": 8284,
      "##느리": 8285,
      "발목": 8286,
      "수험": 8287,
      "김대중": 8288,
      "대주": 8289,
      "연패": 8290,
      "더군요": 8291,
      "오일": 8292,
      "빠져나": 8293,
      "여사": 8294,
      "예선": 8295,
      "야외": 8296,
      "지경": 8297,
      "NC": 8298,
      "자부": 8299,
      "##ip": 8300,
      "인도네시아": 8301,
      "아베": 8302,
      "절대로": 8303,
      "스페": 8304,
      "피고": 8305,
      "##꺼번에": 8306,
      "한꺼번에": 8307,
      "대해선": 8308,
      "길이": 8309,
      "사무총장": 8310,
      "조만간": 8311,
      "치러": 8312,
      "표명": 8313,
      "나선다": 8314,
      "미세먼지": 8315,
      "박정희": 8316,
      "백만": 8317,
      "고스": 8318,
      "건수": 8319,
      "피곤": 8320,
      "내정": 8321,
      "교섭": 8322,
      "건의": 8323,
      "정말로": 8324,
      "일행": 8325,
      "양념": 8326,
      "열기": 8327,
      "##동강": 8328,
      "특이": 8329,
      "##our": 8330,
      "창문": 8331,
      "##토록": 8332,
      "##구리": 8333,
      "전역": 8334,
      "가라": 8335,
      "세일": 8336,
      "##가루": 8337,
      "억울": 8338,
      "날개": 8339,
      "지냈": 8340,
      "05": 8341,
      "벌어졌": 8342,
      "드렸": 8343,
      "성서": 8344,
      "이를": 8345,
      "판매량": 8346,
      "크리스마스": 8347,
      "1960": 8348,
      "당분간": 8349,
      "##제품": 8350,
      "측근": 8351,
      "갈라": 8352,
      "누르": 8353,
      "프린": 8354,
      "전적": 8355,
      "수당": 8356,
      "이영": 8357,
      "꼬리": 8358,
      "##ob": 8359,
      "당내": 8360,
      "주재": 8361,
      "사립": 8362,
      "김연": 8363,
      "서서히": 8364,
      "소원": 8365,
      "간판": 8366,
      "북쪽": 8367,
      "넥센": 8368,
      "관람객": 8369,
      "머릿속": 8370,
      "병행": 8371,
      "리스트": 8372,
      "조지": 8373,
      "IS": 8374,
      "인격": 8375,
      "응급": 8376,
      "사인": 8377,
      "으러": 8378,
      "당해": 8379,
      "흥행": 8380,
      "간식": 8381,
      "용도": 8382,
      "##all": 8383,
      "온몸": 8384,
      "우위": 8385,
      "거점": 8386,
      "음주": 8387,
      "던져": 8388,
      "900": 8389,
      "공기업": 8390,
      "동계": 8391,
      "남겼": 8392,
      "페이": 8393,
      "동아리": 8394,
      "피자": 8395,
      "재고": 8396,
      "리스크": 8397,
      "##ge": 8398,
      "##ttp": 8399,
      "식민지": 8400,
      "앞선": 8401,
      "버릴": 8402,
      "선행": 8403,
      "##직자": 8404,
      "##러워": 8405,
      "뒤늦": 8406,
      "접속": 8407,
      "자존심": 8408,
      "주사": 8409,
      "스러워": 8410,
      "스탠": 8411,
      "화합": 8412,
      "##대문": 8413,
      "토요일": 8414,
      "http": 8415,
      "이수": 8416,
      "낭비": 8417,
      "필리핀": 8418,
      "포르": 8419,
      "##덜란드": 8420,
      "교정": 8421,
      "도저히": 8422,
      "다룬": 8423,
      "위성": 8424,
      "전교": 8425,
      "문구": 8426,
      "페이지": 8427,
      "관여": 8428,
      "중개": 8429,
      "내보": 8430,
      "스타트": 8431,
      "##어붙": 8432,
      "멀티": 8433,
      "항공기": 8434,
      "건설사": 8435,
      "차질": 8436,
      "장학금": 8437,
      "##ub": 8438,
      "인형": 8439,
      "공익": 8440,
      "장례": 8441,
      "1992": 8442,
      "##art": 8443,
      "뛰어들": 8444,
      "네덜란드": 8445,
      "과학자": 8446,
      "LED": 8447,
      "크루": 8448,
      "자제": 8449,
      "상주": 8450,
      "바뀐": 8451,
      "상영": 8452,
      "생애": 8453,
      "중고": 8454,
      "외치": 8455,
      "단다": 8456,
      "아냐": 8457,
      "터미널": 8458,
      "비결": 8459,
      "축적": 8460,
      "염려": 8461,
      "확립": 8462,
      "솔루션": 8463,
      "실점": 8464,
      "어차": 8465,
      "될까": 8466,
      "##구역": 8467,
      "서둘러": 8468,
      "##DP": 8469,
      "불거": 8470,
      "생계": 8471,
      "괴롭": 8472,
      "벌금": 8473,
      "내달": 8474,
      "차세대": 8475,
      "대단히": 8476,
      "플래": 8477,
      "야간": 8478,
      "안경": 8479,
      "한동안": 8480,
      "창고": 8481,
      "무지": 8482,
      "단축": 8483,
      "착공": 8484,
      "힘입": 8485,
      "초월": 8486,
      "1993": 8487,
      "공정위": 8488,
      "어차피": 8489,
      "지낸": 8490,
      "니까요": 8491,
      "그라": 8492,
      "계란": 8493,
      "추락": 8494,
      "##걸음": 8495,
      "아나": 8496,
      "아쉬움": 8497,
      "스프": 8498,
      "독도": 8499,
      "사후": 8500,
      "송도": 8501,
      "고조": 8502,
      "어려웠": 8503,
      "등산": 8504,
      "정통": 8505,
      "터키": 8506,
      "합쳐": 8507,
      "불황": 8508,
      "텍스트": 8509,
      "날카": 8510,
      "뱅크": 8511,
      "최순": 8512,
      "공업": 8513,
      "고장": 8514,
      "조선일보": 8515,
      "종일": 8516,
      "강행": 8517,
      "늘어날": 8518,
      "시술": 8519,
      "cm": 8520,
      "##러드": 8521,
      "강아지": 8522,
      "구호": 8523,
      "숨겨": 8524,
      "콜라": 8525,
      "순천": 8526,
      "투기": 8527,
      "벨트": 8528,
      "골드": 8529,
      "슬로": 8530,
      "사우": 8531,
      "다짐": 8532,
      "잘라": 8533,
      "한류": 8534,
      "커플": 8535,
      "김용": 8536,
      "or": 8537,
      "억압": 8538,
      "간편": 8539,
      "세미나": 8540,
      "보좌": 8541,
      "양심": 8542,
      "서초": 8543,
      "바퀴": 8544,
      "냉장고": 8545,
      "들어선": 8546,
      "중견": 8547,
      "상속": 8548,
      "국산": 8549,
      "비유": 8550,
      "발라": 8551,
      "##집트": 8552,
      "스웨": 8553,
      "소주": 8554,
      "해설": 8555,
      "결혼식": 8556,
      "배정": 8557,
      "무서운": 8558,
      "스크린": 8559,
      "예술가": 8560,
      "감수": 8561,
      "응시": 8562,
      "출판사": 8563,
      "벌어진": 8564,
      "음식점": 8565,
      "펼쳤": 8566,
      "##핵화": 8567,
      "이데": 8568,
      "##미터": 8569,
      "마스터": 8570,
      "이집트": 8571,
      "왕자": 8572,
      "비핵화": 8573,
      "남한": 8574,
      "지성": 8575,
      "처방": 8576,
      "공세": 8577,
      "소용": 8578,
      "당뇨": 8579,
      "달랐": 8580,
      "별다른": 8581,
      "폭탄": 8582,
      "이태": 8583,
      "파주": 8584,
      "뛰어넘": 8585,
      "견제": 8586,
      "최다": 8587,
      "동향": 8588,
      "창립": 8589,
      "##둥이": 8590,
      "몰리": 8591,
      "티켓": 8592,
      "무덤": 8593,
      "브리핑": 8594,
      "분할": 8595,
      "일환": 8596,
      "의상": 8597,
      "써야": 8598,
      "시트": 8599,
      "천재": 8600,
      "전사": 8601,
      "고무": 8602,
      "노동조합": 8603,
      "조약": 8604,
      "국무총리": 8605,
      "사업장": 8606,
      "국경": 8607,
      "주름": 8608,
      "안산": 8609,
      "번지": 8610,
      "food": 8611,
      "영감": 8612,
      "이루어진": 8613,
      "세련": 8614,
      "성질": 8615,
      "##이즈": 8616,
      "IB": 8617,
      "행태": 8618,
      "시가": 8619,
      "재현": 8620,
      "지검": 8621,
      "조세": 8622,
      "현직": 8623,
      "일체": 8624,
      "동남아": 8625,
      "##ine": 8626,
      "주유": 8627,
      "kg": 8628,
      "주고": 8629,
      "시신": 8630,
      "똑같이": 8631,
      "둘러보": 8632,
      "현역": 8633,
      "가벼운": 8634,
      "부천": 8635,
      "떠올리": 8636,
      "로비": 8637,
      "구두": 8638,
      "대지": 8639,
      "냐면": 8640,
      "특위": 8641,
      "좌절": 8642,
      "쌍용": 8643,
      "호기심": 8644,
      "관장": 8645,
      "민생": 8646,
      "과잉": 8647,
      "니다": 8648,
      "다녔": 8649,
      "염두": 8650,
      "식량": 8651,
      "아닙니까": 8652,
      "유전": 8653,
      "출자": 8654,
      "성숙": 8655,
      "교황": 8656,
      "김정일": 8657,
      "기다렸": 8658,
      "류현진": 8659,
      "순이익": 8660,
      "낯선": 8661,
      "장착": 8662,
      "의약": 8663,
      "태풍": 8664,
      "##데이": 8665,
      "입맛": 8666,
      "면제": 8667,
      "철수": 8668,
      "소감": 8669,
      "증세": 8670,
      "01": 8671,
      "for": 8672,
      "뮤직": 8673,
      "포괄": 8674,
      "등록금": 8675,
      "달라지": 8676,
      "지법": 8677,
      "나와서": 8678,
      "지났": 8679,
      "한우": 8680,
      "##니즘": 8681,
      "IMF": 8682,
      "영토": 8683,
      "시나리오": 8684,
      "단점": 8685,
      "주한": 8686,
      "교통사고": 8687,
      "역설": 8688,
      "태극": 8689,
      "연승": 8690,
      "늘려": 8691,
      "넘어서": 8692,
      "저하": 8693,
      "자회사": 8694,
      "1500": 8695,
      "소매": 8696,
      "부스": 8697,
      "데이트": 8698,
      "모범": 8699,
      "계신": 8700,
      "시켜야": 8701,
      "베르": 8702,
      "감당": 8703,
      "코스닥": 8704,
      "##하나": 8705,
      "맡기": 8706,
      "무섭": 8707,
      "남긴": 8708,
      "금감": 8709,
      "오류": 8710,
      "가짜": 8711,
      "트레이": 8712,
      "백제": 8713,
      "단백": 8714,
      "낙동강": 8715,
      "교원": 8716,
      "주고받": 8717,
      "얼른": 8718,
      "노동당": 8719,
      "법무부": 8720,
      "대항": 8721,
      "공방": 8722,
      "따져": 8723,
      "치매": 8724,
      "맛스타": 8725,
      "케이스": 8726,
      "반짝": 8727,
      "##ork": 8728,
      "신념": 8729,
      "직면": 8730,
      "착한": 8731,
      "노릇": 8732,
      "찾아내": 8733,
      "거뒀": 8734,
      "일어날": 8735,
      "추출": 8736,
      "낸다": 8737,
      "명문": 8738,
      "##메이션": 8739,
      "근원": 8740,
      "그래야": 8741,
      "언더": 8742,
      "임상": 8743,
      "##stag": 8744,
      "양보": 8745,
      "오로지": 8746,
      "물고기": 8747,
      "갑작": 8748,
      "감지": 8749,
      "안다": 8750,
      "##ev": 8751,
      "유족": 8752,
      "수산": 8753,
      "타이틀": 8754,
      "신성": 8755,
      "언덕": 8756,
      "떠오": 8757,
      "소셜": 8758,
      "##저기": 8759,
      "미쳤": 8760,
      "LH": 8761,
      "아리": 8762,
      "확고": 8763,
      "프라이": 8764,
      "액션": 8765,
      "강렬": 8766,
      "적립": 8767,
      "마늘": 8768,
      "혈관": 8769,
      "속하": 8770,
      "터지": 8771,
      "여신": 8772,
      "여기저기": 8773,
      "이윤": 8774,
      "새겨": 8775,
      "##뜨렸": 8776,
      "증인": 8777,
      "으리라": 8778,
      "##일으": 8779,
      "새우": 8780,
      "불러일으": 8781,
      "대조": 8782,
      "위장": 8783,
      "인종": 8784,
      "급등": 8785,
      "제발": 8786,
      "오피스텔": 8787,
      "천하": 8788,
      "꼽히": 8789,
      "부도": 8790,
      "##시스": 8791,
      "나타냈": 8792,
      "전신": 8793,
      "지난주": 8794,
      "내외": 8795,
      "항만": 8796,
      "의외": 8797,
      "인디": 8798,
      "꼽힌다": 8799,
      "타입": 8800,
      "정답": 8801,
      "바지": 8802,
      "돌렸": 8803,
      "여주": 8804,
      "국물": 8805,
      "이치": 8806,
      "첫날": 8807,
      "청정": 8808,
      "두루": 8809,
      "재활": 8810,
      "강좌": 8811,
      "##관계": 8812,
      "지능": 8813,
      "비치": 8814,
      "이뤄진": 8815,
      "##톨릭": 8816,
      "색상": 8817,
      "한진": 8818,
      "부총리": 8819,
      "중순": 8820,
      "억지": 8821,
      "유망": 8822,
      "부양": 8823,
      "미국인": 8824,
      "범인": 8825,
      "살피": 8826,
      "외국어": 8827,
      "예의": 8828,
      "바둑": 8829,
      "후속": 8830,
      "문득": 8831,
      "과시": 8832,
      "평론": 8833,
      "피아노": 8834,
      "일부러": 8835,
      "몽골": 8836,
      "##━━": 8837,
      "고스란히": 8838,
      "편입": 8839,
      "도모": 8840,
      "더러": 8841,
      "음반": 8842,
      "멘토": 8843,
      "##ud": 8844,
      "세무": 8845,
      "목격": 8846,
      "으려는": 8847,
      "보여준": 8848,
      "신혼": 8849,
      "오를": 8850,
      "##런스": 8851,
      "결단": 8852,
      "불안감": 8853,
      "종로": 8854,
      "장성": 8855,
      "흑인": 8856,
      "##아내": 8857,
      "계곡": 8858,
      "찾아오": 8859,
      "##80": 8860,
      "요약": 8861,
      "관중": 8862,
      "안타깝": 8863,
      "감기": 8864,
      "남아": 8865,
      "위안부": 8866,
      "정한": 8867,
      "영원히": 8868,
      "한결": 8869,
      "유효": 8870,
      "포착": 8871,
      "어두운": 8872,
      "##화문": 8873,
      "아닌데": 8874,
      "몹시": 8875,
      "앞장서": 8876,
      "김일": 8877,
      "수성": 8878,
      "활력": 8879,
      "연세대": 8880,
      "더블": 8881,
      "협박": 8882,
      "발명": 8883,
      "수령": 8884,
      "종전": 8885,
      "개장": 8886,
      "1991": 8887,
      "틀림없": 8888,
      "잠실": 8889,
      "##올로": 8890,
      "FA": 8891,
      "김수": 8892,
      "트럭": 8893,
      "폴리": 8894,
      "수시로": 8895,
      "증정": 8896,
      "달한다": 8897,
      "130": 8898,
      "버티": 8899,
      "조상": 8900,
      "성경": 8901,
      "도박": 8902,
      "방송사": 8903,
      "불량": 8904,
      "몰래": 8905,
      "당첨": 8906,
      "서기": 8907,
      "여객": 8908,
      "New": 8909,
      "##빨리": 8910,
      "글쎄": 8911,
      "매니저": 8912,
      "##놀이": 8913,
      "창원시": 8914,
      "간절": 8915,
      "건네": 8916,
      "감옥": 8917,
      "명의": 8918,
      "##ht": 8919,
      "마라톤": 8920,
      "기쁘": 8921,
      "전액": 8922,
      "지목": 8923,
      "흑자": 8924,
      "느냐는": 8925,
      "마약": 8926,
      "업자": 8927,
      "전술": 8928,
      "정세": 8929,
      "바꿀": 8930,
      "양도": 8931,
      "공화국": 8932,
      "NH": 8933,
      "이라크": 8934,
      "기다려": 8935,
      "신상": 8936,
      "대국": 8937,
      "이분": 8938,
      "어느새": 8939,
      "이병": 8940,
      "육상": 8941,
      "단백질": 8942,
      "고려대": 8943,
      "상세": 8944,
      "##다지": 8945,
      "인체": 8946,
      "보낼": 8947,
      "##연합": 8948,
      "경제학": 8949,
      "이마": 8950,
      "던졌": 8951,
      "##OC": 8952,
      "사격": 8953,
      "어지": 8954,
      "지각": 8955,
      "##위원": 8956,
      "터져": 8957,
      "블로그": 8958,
      "제휴": 8959,
      "승용차": 8960,
      "상권": 8961,
      "내놨": 8962,
      "연다": 8963,
      "##시간": 8964,
      "##렉스": 8965,
      "내주": 8966,
      "아스": 8967,
      "스코": 8968,
      "##인지": 8969,
      "##스토랑": 8970,
      "레스토랑": 8971,
      "주머니": 8972,
      "우연히": 8973,
      "촉촉": 8974,
      "반려": 8975,
      "합성": 8976,
      "매월": 8977,
      "경관": 8978,
      "마스크": 8979,
      "잃어버": 8980,
      "토끼": 8981,
      "해라": 8982,
      "우린": 8983,
      "반전": 8984,
      "미루": 8985,
      "빈곤": 8986,
      "시너지": 8987,
      "화해": 8988,
      "마구": 8989,
      "모이": 8990,
      "무효": 8991,
      "드물": 8992,
      "우정": 8993,
      "시달리": 8994,
      "유적": 8995,
      "##트로": 8996,
      "혈압": 8997,
      "식구": 8998,
      "가져다": 8999,
      "농담": 9000,
      "끌려": 9001,
      "금감원": 9002,
      "집착": 9003,
      "소극": 9004,
      "내려오": 9005,
      "공직자": 9006,
      "무더": 9007,
      "취미": 9008,
      "힐링": 9009,
      "달콤": 9010,
      "단호": 9011,
      "어떨까": 9012,
      "점령": 9013,
      "생리": 9014,
      "노총": 9015,
      "##ran": 9016,
      "인쇄": 9017,
      "개시": 9018,
      "아가씨": 9019,
      "광명": 9020,
      "본능": 9021,
      "허브": 9022,
      "약물": 9023,
      "이순": 9024,
      "##ment": 9025,
      "자영": 9026,
      "병력": 9027,
      "무죄": 9028,
      "##NG": 9029,
      "피할": 9030,
      "##올로기": 9031,
      "내비": 9032,
      "접하": 9033,
      "##급식": 9034,
      "도지사": 9035,
      "기성": 9036,
      "국비": 9037,
      "수명": 9038,
      "줄일": 9039,
      "랭킹": 9040,
      "인성": 9041,
      "불신": 9042,
      "지붕": 9043,
      "##ort": 9044,
      "살림": 9045,
      "의정부": 9046,
      "##무성": 9047,
      "무상급식": 9048,
      "인턴": 9049,
      "메르스": 9050,
      "패스": 9051,
      "내세우": 9052,
      "1988": 9053,
      "조종": 9054,
      "하도": 9055,
      "반찬": 9056,
      "커뮤니티": 9057,
      "견디": 9058,
      "조그": 9059,
      "오케": 9060,
      "부른다": 9061,
      "네티": 9062,
      "특별법": 9063,
      "바쁜": 9064,
      "가라앉": 9065,
      "##if": 9066,
      "남구": 9067,
      "고인": 9068,
      "배워": 9069,
      "가맹점": 9070,
      "이데올로기": 9071,
      "이산": 9072,
      "메인": 9073,
      "##셉트": 9074,
      "은지": 9075,
      "접목": 9076,
      "소득세": 9077,
      "##데미": 9078,
      "학업": 9079,
      "본선": 9080,
      "으신": 9081,
      "우연": 9082,
      "##ial": 9083,
      "보충": 9084,
      "발간": 9085,
      "문건": 9086,
      "대접": 9087,
      "등판": 9088,
      "소홀": 9089,
      "운항": 9090,
      "건국": 9091,
      "터널": 9092,
      "북구": 9093,
      "바쁘": 9094,
      "배웠": 9095,
      "방위": 9096,
      "##닉스": 9097,
      "on": 9098,
      "피우": 9099,
      "부재": 9100,
      "아카데미": 9101,
      "목욕": 9102,
      "일선": 9103,
      "약화": 9104,
      "육군": 9105,
      "샐러드": 9106,
      "##지능": 9107,
      "도리": 9108,
      "싱글": 9109,
      "탄탄": 9110,
      "##버그": 9111,
      "##마크": 9112,
      "다큐": 9113,
      "잔뜩": 9114,
      "남양": 9115,
      "학년도": 9116,
      "약한": 9117,
      "리모": 9118,
      "출생": 9119,
      "네티즌": 9120,
      "호랑이": 9121,
      "울리": 9122,
      "장미": 9123,
      "##ure": 9124,
      "##⠀⠀⠀⠀": 9125,
      "산소": 9126,
      "헬스": 9127,
      "인공지능": 9128,
      "규범": 9129,
      "온다": 9130,
      "교차": 9131,
      "우즈": 9132,
      "였으나": 9133,
      "등지": 9134,
      "##쟁이": 9135,
      "책임지": 9136,
      "원조": 9137,
      "등기": 9138,
      "수위": 9139,
      "일으킨": 9140,
      "수습": 9141,
      "속성": 9142,
      "개그": 9143,
      "가하": 9144,
      "분배": 9145,
      "정황": 9146,
      "##리티": 9147,
      "##랍니다": 9148,
      "관해": 9149,
      "자격증": 9150,
      "##로우": 9151,
      "여덟": 9152,
      "되풀이": 9153,
      "감싸": 9154,
      "재학": 9155,
      "댄스": 9156,
      "토크": 9157,
      "수년": 9158,
      "##고리": 9159,
      "착각": 9160,
      "수소": 9161,
      "아홉": 9162,
      "노동부": 9163,
      "물음": 9164,
      "로맨": 9165,
      "##DI": 9166,
      "타점": 9167,
      "##주얼": 9168,
      "노란": 9169,
      "동북아": 9170,
      "##들여": 9171,
      "변형": 9172,
      "무인": 9173,
      "발레": 9174,
      "1987": 9175,
      "저널": 9176,
      "올릴": 9177,
      "##오프": 9178,
      "상한": 9179,
      "110": 9180,
      "머무": 9181,
      "한양": 9182,
      "##주의자": 9183,
      "김광": 9184,
      "으셨": 9185,
      "미용": 9186,
      "한국어": 9187,
      "##구니": 9188,
      "생산량": 9189,
      "1989": 9190,
      "도둑": 9191,
      "삼국": 9192,
      "토록": 9193,
      "운동장": 9194,
      "김민": 9195,
      "여왕": 9196,
      "파고": 9197,
      "거세": 9198,
      "걸친": 9199,
      "##세포": 9200,
      "수신": 9201,
      "프랜": 9202,
      "해져": 9203,
      "중재": 9204,
      "위생": 9205,
      "숙소": 9206,
      "맞대": 9207,
      "무거운": 9208,
      "생선": 9209,
      "부추": 9210,
      "성사": 9211,
      "아무튼": 9212,
      "높일": 9213,
      "삭제": 9214,
      "수확": 9215,
      "모금": 9216,
      "동행": 9217,
      "구청장": 9218,
      "따라가": 9219,
      "녹음": 9220,
      "기뻐": 9221,
      "면담": 9222,
      "김지": 9223,
      "##스트라": 9224,
      "먹방": 9225,
      "신축": 9226,
      "2019": 9227,
      "Un": 9228,
      "사흘": 9229,
      "##ate": 9230,
      "왕국": 9231,
      "체중": 9232,
      "건축물": 9233,
      "제사": 9234,
      "무너지": 9235,
      "키스": 9236,
      "가중": 9237,
      "스튜디오": 9238,
      "예산안": 9239,
      "양측": 9240,
      "파도": 9241,
      "시립": 9242,
      "경영진": 9243,
      "개관": 9244,
      "박영": 9245,
      "공자": 9246,
      "##식간": 9247,
      "반사": 9248,
      "열려": 9249,
      "그다지": 9250,
      "BM": 9251,
      "성형": 9252,
      "##거나": 9253,
      "하천": 9254,
      "##ue": 9255,
      "그만두": 9256,
      "##지니어": 9257,
      "체질": 9258,
      "낙찰": 9259,
      "##릅니다": 9260,
      "동성": 9261,
      "벤치": 9262,
      "전기차": 9263,
      "패널": 9264,
      "지르": 9265,
      "안쪽": 9266,
      "단행": 9267,
      "헌신": 9268,
      "##NA": 9269,
      "태평양": 9270,
      "감사원": 9271,
      "Com": 9272,
      "베이비": 9273,
      "열매": 9274,
      "도요": 9275,
      "내릴": 9276,
      "장인": 9277,
      "어딘": 9278,
      "라기": 9279,
      "소유자": 9280,
      "이어진": 9281,
      "절약": 9282,
      "현명": 9283,
      "최후": 9284,
      "달린": 9285,
      "삭감": 9286,
      "다가가": 9287,
      "물어": 9288,
      "군데": 9289,
      "풍성": 9290,
      "유물": 9291,
      "##af": 9292,
      "전직": 9293,
      "##FA": 9294,
      "광양": 9295,
      "애니메이션": 9296,
      "ㅎㅎㅎ": 9297,
      "결성": 9298,
      "커졌": 9299,
      "청춘": 9300,
      "##걸이": 9301,
      "느냐고": 9302,
      "국적": 9303,
      "소멸": 9304,
      "만성": 9305,
      "느껴졌": 9306,
      "호르": 9307,
      "보복": 9308,
      "##두르": 9309,
      "신종": 9310,
      "접어들": 9311,
      "목포": 9312,
      "교도": 9313,
      "이사회": 9314,
      "##stagram": 9315,
      "발길": 9316,
      "인치": 9317,
      "관할": 9318,
      "##무지": 9319,
      "중립": 9320,
      "주어진": 9321,
      "모형": 9322,
      "헤드": 9323,
      "이대": 9324,
      "수강": 9325,
      "아이돌": 9326,
      "히트": 9327,
      "##외선": 9328,
      "담론": 9329,
      "하나하나": 9330,
      "사명": 9331,
      "##워드": 9332,
      "##브리드": 9333,
      "드립니다": 9334,
      "##드로": 9335,
      "Con": 9336,
      "아랍": 9337,
      "못지않": 9338,
      "축산": 9339,
      "지역구": 9340,
      "감면": 9341,
      "합작": 9342,
      "웨이": 9343,
      "임차": 9344,
      "진전": 9345,
      "하이브리드": 9346,
      "광범": 9347,
      "추상": 9348,
      "##셔널": 9349,
      "##저리": 9350,
      "정무": 9351,
      "선제": 9352,
      "이지": 9353,
      "편견": 9354,
      "인접": 9355,
      "옵션": 9356,
      "처장": 9357,
      "경찰관": 9358,
      "지원금": 9359,
      "스웨덴": 9360,
      "상품권": 9361,
      "면허": 9362,
      "가죽": 9363,
      "전락": 9364,
      "특혜": 9365,
      "용량": 9366,
      "선포": 9367,
      "맞춘": 9368,
      "항공사": 9369,
      "하드": 9370,
      "끔찍": 9371,
      "유인": 9372,
      "통로": 9373,
      "함부": 9374,
      "민영": 9375,
      "불꽃": 9376,
      "악마": 9377,
      "파란": 9378,
      "왠지": 9379,
      "표지": 9380,
      "계승": 9381,
      "해법": 9382,
      "약자": 9383,
      "날짜": 9384,
      "사형": 9385,
      "시체": 9386,
      "타임스": 9387,
      "치아": 9388,
      "계정": 9389,
      "순식간": 9390,
      "영리": 9391,
      "셔야": 9392,
      "안성": 9393,
      "충성": 9394,
      "당기": 9395,
      "찾아볼": 9396,
      "미지": 9397,
      "권유": 9398,
      "엇갈": 9399,
      "강해": 9400,
      "레저": 9401,
      "배울": 9402,
      "쏟아지": 9403,
      "야생": 9404,
      "내각": 9405,
      "종업": 9406,
      "교훈": 9407,
      "그런지": 9408,
      "복음": 9409,
      "여고": 9410,
      "동쪽": 9411,
      "중년": 9412,
      "에어컨": 9413,
      "가리키": 9414,
      "추측": 9415,
      "기어": 9416,
      "관광지": 9417,
      "아산": 9418,
      "제의": 9419,
      "빌리": 9420,
      "가까워": 9421,
      "우스": 9422,
      "가톨릭": 9423,
      "유독": 9424,
      "물러나": 9425,
      "선명": 9426,
      "보리": 9427,
      "갈비": 9428,
      "통행": 9429,
      "제어": 9430,
      "꾸며": 9431,
      "추격": 9432,
      "밀접": 9433,
      "바랍니다": 9434,
      "대한항공": 9435,
      "시비": 9436,
      "효력": 9437,
      "보강": 9438,
      "영주": 9439,
      "응답자": 9440,
      "열풍": 9441,
      "OE": 9442,
      "거둔": 9443,
      "소망": 9444,
      "MO": 9445,
      "##ld": 9446,
      "모인": 9447,
      "최강": 9448,
      "물려": 9449,
      "지상파": 9450,
      "도시락": 9451,
      "이득": 9452,
      "일으켰": 9453,
      "애국": 9454,
      "하하": 9455,
      "스러웠": 9456,
      "막상": 9457,
      "러브": 9458,
      "가문": 9459,
      "가져오": 9460,
      "동아시아": 9461,
      "서점": 9462,
      "하수": 9463,
      "신탁": 9464,
      "약점": 9465,
      "##버트": 9466,
      "드래": 9467,
      "ST": 9468,
      "뜨겁": 9469,
      "핑크": 9470,
      "사이즈": 9471,
      "재직": 9472,
      "##국수": 9473,
      "광화문": 9474,
      "##그레이드": 9475,
      "GDP": 9476,
      "쇄신": 9477,
      "워터": 9478,
      "일일": 9479,
      "열쇠": 9480,
      "종업원": 9481,
      "업그레이드": 9482,
      "울음": 9483,
      "재발": 9484,
      "부근": 9485,
      "사라져": 9486,
      "해결책": 9487,
      "배송": 9488,
      "입력": 9489,
      "한전": 9490,
      "마이너": 9491,
      "관심사": 9492,
      "아하": 9493,
      "저소득층": 9494,
      "표기": 9495,
      "과자": 9496,
      "스킨": 9497,
      "야채": 9498,
      "태어났": 9499,
      "서방": 9500,
      "밀양": 9501,
      "아줌": 9502,
      "정국": 9503,
      "클리": 9504,
      "마비": 9505,
      "바꾼": 9506,
      "공영": 9507,
      "여파": 9508,
      "안방": 9509,
      "게재": 9510,
      "복구": 9511,
      "##의식": 9512,
      "배분": 9513,
      "밀리": 9514,
      "신동": 9515,
      "고쳐": 9516,
      "스피드": 9517,
      "정교": 9518,
      "서쪽": 9519,
      "추첨": 9520,
      "자영업": 9521,
      "요양": 9522,
      "언론사": 9523,
      "사라진": 9524,
      "##유산": 9525,
      "출현": 9526,
      "양반": 9527,
      "국세청": 9528,
      "주연": 9529,
      "정유": 9530,
      "아줌마": 9531,
      "전도": 9532,
      "재계": 9533,
      "거품": 9534,
      "올라오": 9535,
      "입점": 9536,
      "나빠": 9537,
      "활기": 9538,
      "부를": 9539,
      "당선자": 9540,
      "##파크": 9541,
      "먹거리": 9542,
      "버린다": 9543,
      "##센터": 9544,
      "항소": 9545,
      "분담": 9546,
      "US": 9547,
      "외교부": 9548,
      "강남구": 9549,
      "검진": 9550,
      "내장": 9551,
      "프로세": 9552,
      "##조리": 9553,
      "한자": 9554,
      "SM": 9555,
      "유방": 9556,
      "##로리": 9557,
      "단편": 9558,
      "갈아": 9559,
      "빨라": 9560,
      "일수록": 9561,
      "화가": 9562,
      "보증금": 9563,
      "반해": 9564,
      "수련": 9565,
      "급격히": 9566,
      "타율": 9567,
      "해운대": 9568,
      "백악": 9569,
      "안주": 9570,
      "당선인": 9571,
      "내려놓": 9572,
      "메일": 9573,
      "거실": 9574,
      "걸까": 9575,
      "월세": 9576,
      "대왕": 9577,
      "티비": 9578,
      "##iz": 9579,
      "동아일보": 9580,
      "응용": 9581,
      "드러난": 9582,
      "아메리카": 9583,
      "풀리": 9584,
      "지극": 9585,
      "치우": 9586,
      "한방": 9587,
      "##PGA": 9588,
      "140": 9589,
      "##니스트": 9590,
      "홍준": 9591,
      "돌아갔": 9592,
      "범주": 9593,
      "유교": 9594,
      "##저스": 9595,
      "들렸": 9596,
      "모험": 9597,
      "기증": 9598,
      "망설": 9599,
      "생성": 9600,
      "배우자": 9601,
      "단말": 9602,
      "대치": 9603,
      "폐기물": 9604,
      "드레스": 9605,
      "차려": 9606,
      "그까": 9607,
      "대주주": 9608,
      "장벽": 9609,
      "참모": 9610,
      "단정": 9611,
      "떨어질": 9612,
      "수질": 9613,
      "##se": 9614,
      "이메": 9615,
      "##60": 9616,
      "##ang": 9617,
      "준다는": 9618,
      "군부": 9619,
      "##ich": 9620,
      "상상력": 9621,
      "구사": 9622,
      "솔로": 9623,
      "명목": 9624,
      "페르": 9625,
      "##타운": 9626,
      "##유럽": 9627,
      "넉넉": 9628,
      "일일이": 9629,
      "발매": 9630,
      "##oll": 9631,
      "inst": 9632,
      "##ore": 9633,
      "혼합": 9634,
      "악기": 9635,
      "끌어들": 9636,
      "행운": 9637,
      "##밀히": 9638,
      "##동생": 9639,
      "코미": 9640,
      "협업": 9641,
      "의약품": 9642,
      "감히": 9643,
      "열악": 9644,
      "톡톡": 9645,
      "자매": 9646,
      "위해선": 9647,
      "대세": 9648,
      "좌석": 9649,
      "너머": 9650,
      "어음": 9651,
      "중기": 9652,
      "호르몬": 9653,
      "써서": 9654,
      "만주": 9655,
      "낭만": 9656,
      "필름": 9657,
      "##시마": 9658,
      "각기": 9659,
      "##aily": 9660,
      "나타날": 9661,
      "매운": 9662,
      "유감": 9663,
      "일산": 9664,
      "횟수": 9665,
      "유승": 9666,
      "벌인": 9667,
      "경위": 9668,
      "##ak": 9669,
      "관리자": 9670,
      "복용": 9671,
      "타협": 9672,
      "사막": 9673,
      "기숙": 9674,
      "민정": 9675,
      "와중": 9676,
      "사방": 9677,
      "택배": 9678,
      "피고인": 9679,
      "##레이션": 9680,
      "등등": 9681,
      "전철": 9682,
      "아이스": 9683,
      "방금": 9684,
      "##밀리": 9685,
      "희생자": 9686,
      "홍준표": 9687,
      "##티나": 9688,
      "트로": 9689,
      "분량": 9690,
      "상정": 9691,
      "중얼": 9692,
      "성당": 9693,
      "으려면": 9694,
      "비추": 9695,
      "교역": 9696,
      "김병": 9697,
      "저서": 9698,
      "보물": 9699,
      "승점": 9700,
      "시상식": 9701,
      "아아": 9702,
      "십자": 9703,
      "마르크스": 9704,
      "스쿨": 9705,
      "갖췄": 9706,
      "초등학생": 9707,
      "LTE": 9708,
      "게이": 9709,
      "일제히": 9710,
      "다면서": 9711,
      "160": 9712,
      "제작진": 9713,
      "업적": 9714,
      "간직": 9715,
      "신나": 9716,
      "제법": 9717,
      "공백": 9718,
      "공존": 9719,
      "고가": 9720,
      "한눈": 9721,
      "나눈": 9722,
      "##차례": 9723,
      "똑똑": 9724,
      "AP": 9725,
      "든든": 9726,
      "박차": 9727,
      "집값": 9728,
      "이메일": 9729,
      "요새": 9730,
      "모의": 9731,
      "이라도": 9732,
      "이뤄질": 9733,
      "지루": 9734,
      "쌓여": 9735,
      "##배우": 9736,
      "정화": 9737,
      "해변": 9738,
      "##ee": 9739,
      "재판소": 9740,
      "노벨": 9741,
      "레이스": 9742,
      "내걸": 9743,
      "실은": 9744,
      "##카락": 9745,
      "1950": 9746,
      "추위": 9747,
      "요법": 9748,
      "선수단": 9749,
      "머리카락": 9750,
      "증여": 9751,
      "수상자": 9752,
      "흡연": 9753,
      "익히": 9754,
      "이쪽": 9755,
      "탑승": 9756,
      "애인": 9757,
      "##슬러": 9758,
      "사소": 9759,
      "회피": 9760,
      "우대": 9761,
      "사각": 9762,
      "베이스": 9763,
      "##쓰기": 9764,
      "원화": 9765,
      "##봐야": 9766,
      "##다임": 9767,
      "간호사": 9768,
      "기르": 9769,
      "발의": 9770,
      "글씨": 9771,
      "패러다임": 9772,
      "가령": 9773,
      "광범위": 9774,
      "중부": 9775,
      "향수": 9776,
      "밝혀졌": 9777,
      "햇살": 9778,
      "산정": 9779,
      "엄청나": 9780,
      "원대": 9781,
      "애요": 9782,
      "오프라인": 9783,
      "##일랜드": 9784,
      "대충": 9785,
      "주역": 9786,
      "동지": 9787,
      "##두리": 9788,
      "##마토": 9789,
      "어리석": 9790,
      "브로": 9791,
      "단절": 9792,
      "렌즈": 9793,
      "선보인": 9794,
      "차분": 9795,
      "Th": 9796,
      "##트라": 9797,
      "파격": 9798,
      "부시": 9799,
      "##개발": 9800,
      "짜증": 9801,
      "출구": 9802,
      "지식인": 9803,
      "소나무": 9804,
      "안겨": 9805,
      "통신사": 9806,
      "조율": 9807,
      "침략": 9808,
      "SU": 9809,
      "킬로": 9810,
      "##man": 9811,
      "유세": 9812,
      "법조": 9813,
      "금품": 9814,
      "플라스": 9815,
      "사령관": 9816,
      "석탄": 9817,
      "천문": 9818,
      "달했": 9819,
      "버튼": 9820,
      "드라이": 9821,
      "구리": 9822,
      "산단": 9823,
      "전이": 9824,
      "##내리": 9825,
      "정해진": 9826,
      "가루": 9827,
      "휴양": 9828,
      "예배": 9829,
      "강동": 9830,
      "##드라": 9831,
      "백악관": 9832,
      "책정": 9833,
      "아닌지": 9834,
      "였을": 9835,
      "도출": 9836,
      "출제": 9837,
      "소모": 9838,
      "전방": 9839,
      "으론": 9840,
      "##사업": 9841,
      "그해": 9842,
      "거칠": 9843,
      "때리": 9844,
      "내신": 9845,
      "출동": 9846,
      "찾아왔": 9847,
      "치명": 9848,
      "횡령": 9849,
      "느낀다": 9850,
      "##지부": 9851,
      "어렸": 9852,
      "##ung": 9853,
      "가르침": 9854,
      "박원": 9855,
      "기둥": 9856,
      "사모": 9857,
      "##러움": 9858,
      "교재": 9859,
      "보험금": 9860,
      "배후": 9861,
      "두려워": 9862,
      "##인드": 9863,
      "##ss": 9864,
      "김일성": 9865,
      "이듬": 9866,
      "##로움": 9867,
      "교통부": 9868,
      "교양": 9869,
      "막내": 9870,
      "##70": 9871,
      "수색": 9872,
      "농어": 9873,
      "온실": 9874,
      "수고": 9875,
      "보석": 9876,
      "명소": 9877,
      "돌보": 9878,
      "획기": 9879,
      "사교육": 9880,
      "자부심": 9881,
      "오락": 9882,
      "지나친": 9883,
      "치솟": 9884,
      "지옥": 9885,
      "까다": 9886,
      "아님": 9887,
      "##40": 9888,
      "장려": 9889,
      "드린다": 9890,
      "##ber": 9891,
      "경사": 9892,
      "금요일": 9893,
      "재해": 9894,
      "튼튼": 9895,
      "구장": 9896,
      "달래": 9897,
      "정복": 9898,
      "##리포": 9899,
      "잔치": 9900,
      "막판": 9901,
      "##수수색": 9902,
      "에코": 9903,
      "상용": 9904,
      "KTX": 9905,
      "##고속": 9906,
      "받아들일": 9907,
      "압수수색": 9908,
      "##옵니다": 9909,
      "회동": 9910,
      "인건": 9911,
      "콘셉트": 9912,
      "연이": 9913,
      "이루어져": 9914,
      "벌여": 9915,
      "버전": 9916,
      "인문학": 9917,
      "##토리": 9918,
      "누릴": 9919,
      "놀란": 9920,
      "터치": 9921,
      "ㅜㅜ": 9922,
      "부착": 9923,
      "다채": 9924,
      "외쳤": 9925,
      "주유소": 9926,
      "반갑": 9927,
      "나뉘": 9928,
      "처녀": 9929,
      "치밀": 9930,
      "들으면": 9931,
      "라이트": 9932,
      "구해": 9933,
      "예언": 9934,
      "서사": 9935,
      "188": 9936,
      "LA": 9937,
      "발상": 9938,
      "나노": 9939,
      "추산": 9940,
      "박주": 9941,
      "##임스": 9942,
      "선비": 9943,
      "이듬해": 9944,
      "기세": 9945,
      "구절": 9946,
      "비트": 9947,
      "엑스포": 9948,
      "귀찮": 9949,
      "##러졌": 9950,
      "반환": 9951,
      "고성": 9952,
      "도우": 9953,
      "그늘": 9954,
      "자질": 9955,
      "척추": 9956,
      "이룰": 9957,
      "##잖아": 9958,
      "##르르": 9959,
      "소집": 9960,
      "인건비": 9961,
      "최우선": 9962,
      "##ence": 9963,
      "법령": 9964,
      "비단": 9965,
      "##olog": 9966,
      "유료": 9967,
      "##매김": 9968,
      "본다면": 9969,
      "새삼": 9970,
      "##ong": 9971,
      "동굴": 9972,
      "자리매김": 9973,
      "달렸": 9974,
      "각지": 9975,
      "흘러나": 9976,
      "어색": 9977,
      "공연장": 9978,
      "귀신": 9979,
      "##비드": 9980,
      "화살": 9981,
      "사료": 9982,
      "기울여": 9983,
      "청원": 9984,
      "되살": 9985,
      "##테이너": 9986,
      "보람": 9987,
      "천장": 9988,
      "그런가": 9989,
      "원작": 9990,
      "향했": 9991,
      "센서": 9992,
      "쓴다": 9993,
      "들어올": 9994,
      "고치": 9995,
      "매트": 9996,
      "수송": 9997,
      "분단": 9998,
      "키워드": 9999,
      "##신문": 10000,
      "원형": 10001,
      "프랜차": 10002,
      "외출": 10003,
      "배신": 10004,
      "##셔츠": 10005,
      "엔지니어": 10006,
      "되돌아": 10007,
      "##저트": 10008,
      "비자": 10009,
      "기한": 10010,
      "##교통": 10011,
      "생긴다": 10012,
      "야기": 10013,
      "실감": 10014,
      "##금리": 10015,
      "차트": 10016,
      "자립": 10017,
      "외곽": 10018,
      "##베이": 10019,
      "저렇게": 10020,
      "리스": 10021,
      "메달": 10022,
      "북측": 10023,
      "프랜차이즈": 10024,
      "원금": 10025,
      "앞세워": 10026,
      "##바이트": 10027,
      "An": 10028,
      "설사": 10029,
      "CCTV": 10030,
      "다름없": 10031,
      "남용": 10032,
      "인삼": 10033,
      "흥원": 10034,
      "신생": 10035,
      "FI": 10036,
      "껍질": 10037,
      "끈다": 10038,
      "한국은행": 10039,
      "나눌": 10040,
      "토로": 10041,
      "미흡": 10042,
      "좀처럼": 10043,
      "합창": 10044,
      "극심": 10045,
      "다닐": 10046,
      "옮겼": 10047,
      "중산": 10048,
      "고는": 10049,
      "협동조합": 10050,
      "클래스": 10051,
      "왕조": 10052,
      "감탄": 10053,
      "강변": 10054,
      "손자": 10055,
      "배구": 10056,
      "푸르": 10057,
      "디저트": 10058,
      "할수록": 10059,
      "화두": 10060,
      "물결": 10061,
      "시어": 10062,
      "진동": 10063,
      "이뤄지지": 10064,
      "##머스": 10065,
      "트랙": 10066,
      "BMW": 10067,
      "가져가": 10068,
      "##ook": 10069,
      "ICT": 10070,
      "침몰": 10071,
      "매진": 10072,
      "제임스": 10073,
      "시리아": 10074,
      "정시": 10075,
      "배포": 10076,
      "부합": 10077,
      "CD": 10078,
      "##IC": 10079,
      "둔화": 10080,
      "돌아다니": 10081,
      "공산당": 10082,
      "실효": 10083,
      "베를": 10084,
      "관하": 10085,
      "국민은행": 10086,
      "양파": 10087,
      "중지": 10088,
      "정직": 10089,
      "119": 10090,
      "##행위": 10091,
      "놓인": 10092,
      "이적": 10093,
      "이원": 10094,
      "○○": 10095,
      "잡히": 10096,
      "초콜": 10097,
      "백신": 10098,
      "MC": 10099,
      "청탁": 10100,
      "케이크": 10101,
      "미스": 10102,
      "발걸음": 10103,
      "농도": 10104,
      "외식": 10105,
      "행하": 10106,
      "국악": 10107,
      "추경": 10108,
      "##업자": 10109,
      "간장": 10110,
      "차림": 10111,
      "탈당": 10112,
      "상향": 10113,
      "이력": 10114,
      "피의자": 10115,
      "##집니다": 10116,
      "인자": 10117,
      "##코올": 10118,
      "사도": 10119,
      "천사": 10120,
      "이어져": 10121,
      "신재": 10122,
      "모씨": 10123,
      "파장": 10124,
      "그루": 10125,
      "전임": 10126,
      "보행": 10127,
      "DM": 10128,
      "##ian": 10129,
      "##서리": 10130,
      "공군": 10131,
      "월요일": 10132,
      "코미디": 10133,
      "##ain": 10134,
      "임대료": 10135,
      "더라면": 10136,
      "옮긴": 10137,
      "##운서": 10138,
      "암시": 10139,
      "내역": 10140,
      "충동": 10141,
      "심리학": 10142,
      "##리케이션": 10143,
      "##PS": 10144,
      "걸릴": 10145,
      "선거법": 10146,
      "백인": 10147,
      "##tive": 10148,
      "잠재력": 10149,
      "아나운서": 10150,
      "장기간": 10151,
      "이만": 10152,
      "단식": 10153,
      "김연아": 10154,
      "은혜": 10155,
      "이례": 10156,
      "눌러": 10157,
      "비명": 10158,
      "해야지": 10159,
      "식탁": 10160,
      "공조": 10161,
      "대략": 10162,
      "괴물": 10163,
      "##아웃": 10164,
      "중복": 10165,
      "숙제": 10166,
      "기업인": 10167,
      "검정": 10168,
      "송파": 10169,
      "중세": 10170,
      "##시설": 10171,
      "##걸리": 10172,
      "소설가": 10173,
      "달라졌": 10174,
      "의제": 10175,
      "구제역": 10176,
      "가치관": 10177,
      "맡겨": 10178,
      "을수록": 10179,
      "청취": 10180,
      "져야": 10181,
      "갑작스": 10182,
      "제철": 10183,
      "크루즈": 10184,
      "##몬드": 10185,
      "폭넓": 10186,
      "일가": 10187,
      "목록": 10188,
      "ch": 10189,
      "con": 10190,
      "는구나": 10191,
      "비틀": 10192,
      "윌리": 10193,
      "엉덩이": 10194,
      "광복": 10195,
      "사설": 10196,
      "산출": 10197,
      "개개": 10198,
      "발자": 10199,
      "##경북": 10200,
      "복무": 10201,
      "골든": 10202,
      "막걸리": 10203,
      "강정": 10204,
      "정립": 10205,
      "방영": 10206,
      "달려가": 10207,
      "쾌적": 10208,
      "만족도": 10209,
      "필연": 10210,
      "##ll": 10211,
      "평론가": 10212,
      "매개": 10213,
      "모드": 10214,
      "차가운": 10215,
      "지형": 10216,
      "펼쳐지": 10217,
      "우울증": 10218,
      "일련": 10219,
      "##ear": 10220,
      "플라스틱": 10221,
      "잠수": 10222,
      "세이": 10223,
      "재킷": 10224,
      "에다가": 10225,
      "인과": 10226,
      "열릴": 10227,
      "리듬": 10228,
      "##ith": 10229,
      "일으켜": 10230,
      "이어진다": 10231,
      "간격": 10232,
      "##널드": 10233,
      "난민": 10234,
      "전격": 10235,
      "풍요": 10236,
      "OECD": 10237,
      "동호": 10238,
      "병역": 10239,
      "서정": 10240,
      "학대": 10241,
      "인가요": 10242,
      "글쓰기": 10243,
      "동포": 10244,
      "##임금": 10245,
      "ㅠㅠㅠ": 10246,
      "속속": 10247,
      "유진": 10248,
      "파산": 10249,
      "한겨": 10250,
      "성폭력": 10251,
      "컨테이너": 10252,
      "해치": 10253,
      "그토록": 10254,
      "봐서": 10255,
      "실습": 10256,
      "오브": 10257,
      "제이": 10258,
      "반기": 10259,
      "06": 10260,
      "길래": 10261,
      "##ov": 10262,
      "흥국": 10263,
      "국수": 10264,
      "산다": 10265,
      "몸매": 10266,
      "안개": 10267,
      "온통": 10268,
      "##end": 10269,
      "액수": 10270,
      "알코올": 10271,
      "며느리": 10272,
      "설탕": 10273,
      "신한은행": 10274,
      "몰라도": 10275,
      "혼인": 10276,
      "수차례": 10277,
      "파라": 10278,
      "어선": 10279,
      "전교조": 10280,
      "고고": 10281,
      "당대": 10282,
      "##어요": 10283,
      "04": 10284,
      "렀다": 10285,
      "전수": 10286,
      "어떡": 10287,
      "국채": 10288,
      "상해": 10289,
      "낚시": 10290,
      "전송": 10291,
      "신약": 10292,
      "##원장": 10293,
      "햇빛": 10294,
      "올라갔": 10295,
      "영구": 10296,
      "플랜트": 10297,
      "연동": 10298,
      "회화": 10299,
      "스토어": 10300,
      "철학자": 10301,
      "##산부": 10302,
      "들어간다": 10303,
      "한겨레": 10304,
      "클린턴": 10305,
      "스페셜": 10306,
      "총수": 10307,
      "합법": 10308,
      "카운": 10309,
      "연비": 10310,
      "연구자": 10311,
      "역동": 10312,
      "종사": 10313,
      "출국": 10314,
      "수혜": 10315,
      "헌재": 10316,
      "정조": 10317,
      "1986": 10318,
      "서장": 10319,
      "상관없이": 10320,
      "##iet": 10321,
      "보살": 10322,
      "엉뚱": 10323,
      "종사자": 10324,
      "다시피": 10325,
      "##폴리오": 10326,
      "긴장감": 10327,
      "광산": 10328,
      "적혀": 10329,
      "잉글": 10330,
      "제로": 10331,
      "포트폴리오": 10332,
      "수호": 10333,
      "함부로": 10334,
      "역임": 10335,
      "수여": 10336,
      "쿠폰": 10337,
      "달라진": 10338,
      "분포": 10339,
      "##사리": 10340,
      "딸기": 10341,
      "봉사자": 10342,
      "특강": 10343,
      "맞물": 10344,
      "매번": 10345,
      "상의": 10346,
      "민속": 10347,
      "별명": 10348,
      "실전": 10349,
      "오스트": 10350,
      "유성": 10351,
      "약해": 10352,
      "천지": 10353,
      "농림": 10354,
      "##위원회": 10355,
      "주권": 10356,
      "수장": 10357,
      "주전": 10358,
      "##평가": 10359,
      "바꿨": 10360,
      "좌파": 10361,
      "##와서": 10362,
      "##연구": 10363,
      "마이클": 10364,
      "김선": 10365,
      "교부": 10366,
      "이어서": 10367,
      "알파": 10368,
      "여전": 10369,
      "걸어가": 10370,
      "에이스": 10371,
      "부풀": 10372,
      "다가왔": 10373,
      "군주": 10374,
      "학계": 10375,
      "##실험": 10376,
      "##ory": 10377,
      "일간": 10378,
      "귀여운": 10379,
      "우세": 10380,
      "배추": 10381,
      "끊이": 10382,
      "심상": 10383,
      "유머": 10384,
      "위법": 10385,
      "뒤따": 10386,
      "##무기": 10387,
      "우물": 10388,
      "##스크림": 10389,
      "아이스크림": 10390,
      "퍼져": 10391,
      "##소연": 10392,
      "##IP": 10393,
      "대여": 10394,
      "해산": 10395,
      "홍수": 10396,
      "유래": 10397,
      "조회": 10398,
      "고난": 10399,
      "사망자": 10400,
      "간섭": 10401,
      "넘쳐": 10402,
      "수원시": 10403,
      "오만": 10404,
      "휩싸": 10405,
      "김장": 10406,
      "유의": 10407,
      "생각나": 10408,
      "돌아갈": 10409,
      "자유주의": 10410,
      "오케스트라": 10411,
      "간사": 10412,
      "ET": 10413,
      "공통점": 10414,
      "이인": 10415,
      "홍대": 10416,
      "봉투": 10417,
      "##레이크": 10418,
      "그제": 10419,
      "##베이터": 10420,
      "볼거리": 10421,
      "꼼꼼히": 10422,
      "침입": 10423,
      "브라운": 10424,
      "숨기": 10425,
      "팔리": 10426,
      "통영": 10427,
      "떠날": 10428,
      "부유": 10429,
      "박지성": 10430,
      "##소시": 10431,
      "조속": 10432,
      "털어놓": 10433,
      "관건": 10434,
      "메리": 10435,
      "de": 10436,
      "비닐": 10437,
      "##버님": 10438,
      "라이브": 10439,
      "후쿠": 10440,
      "퍼지": 10441,
      "키즈": 10442,
      "연도": 10443,
      "으라": 10444,
      "폭로": 10445,
      "취해": 10446,
      "리서": 10447,
      "변했": 10448,
      "평일": 10449,
      "상원": 10450,
      "##난히": 10451,
      "변함": 10452,
      "그랜드": 10453,
      "보름": 10454,
      "친화": 10455,
      "계약서": 10456,
      "우편": 10457,
      "찾아온": 10458,
      "유가족": 10459,
      "업소": 10460,
      "극히": 10461,
      "인내": 10462,
      "어긋": 10463,
      "장난감": 10464,
      "이대로": 10465,
      "복제": 10466,
      "초록": 10467,
      "##멘트": 10468,
      "양주": 10469,
      "##경기": 10470,
      "휴일": 10471,
      "커질": 10472,
      "이길": 10473,
      "배고": 10474,
      "신흥": 10475,
      "잡혀": 10476,
      "제보": 10477,
      "거꾸": 10478,
      "트레": 10479,
      "교감": 10480,
      "오이": 10481,
      "광부": 10482,
      "적시": 10483,
      "##ant": 10484,
      "가산": 10485,
      "박종": 10486,
      "탐방": 10487,
      "##ark": 10488,
      "시야": 10489,
      "##릭스": 10490,
      "방통": 10491,
      "전복": 10492,
      "이해관계": 10493,
      "날리": 10494,
      "내다": 10495,
      "지역민": 10496,
      "농성": 10497,
      "볶음": 10498,
      "조카": 10499,
      "스카이": 10500,
      "으니까요": 10501,
      "지원자": 10502,
      "대사관": 10503,
      "김무성": 10504,
      "자외선": 10505,
      "##트롤": 10506,
      "천주": 10507,
      "여름철": 10508,
      "온천": 10509,
      "기각": 10510,
      "스펙": 10511,
      "신랑": 10512,
      "훌쩍": 10513,
      "스물": 10514,
      "##볶이": 10515,
      "산학": 10516,
      "아일랜드": 10517,
      "매립": 10518,
      "고독": 10519,
      "모니터링": 10520,
      "밸리": 10521,
      "101": 10522,
      "펼쳐진다": 10523,
      "초콜릿": 10524,
      "도요타": 10525,
      "##바다": 10526,
      "말레이": 10527,
      "##관위": 10528,
      "볼까": 10529,
      "혐오": 10530,
      "이뤘": 10531,
      "우회": 10532,
      "적성": 10533,
      "빼놓": 10534,
      "대법관": 10535,
      "냉정": 10536,
      "탄압": 10537,
      "가져야": 10538,
      "넘어섰": 10539,
      "급락": 10540,
      "겁니까": 10541,
      "걸맞": 10542,
      "놀랍": 10543,
      "성장세": 10544,
      "진도": 10545,
      "부엌": 10546,
      "##치기": 10547,
      "차익": 10548,
      "입국": 10549,
      "##ust": 10550,
      "단말기": 10551,
      "크로": 10552,
      "김승": 10553,
      "##려고": 10554,
      "리서치": 10555,
      "최경": 10556,
      "변해": 10557,
      "성찰": 10558,
      "고래": 10559,
      "해임": 10560,
      "거제": 10561,
      "손쉽": 10562,
      "쿼터": 10563,
      "구워": 10564,
      "우아": 10565,
      "수직": 10566,
      "##ly": 10567,
      "고속도로": 10568,
      "##ass": 10569,
      "저질": 10570,
      "체인": 10571,
      "경전": 10572,
      "관해서": 10573,
      "공문": 10574,
      "##커녕": 10575,
      "그쪽": 10576,
      "나비": 10577,
      "손바닥": 10578,
      "딱딱": 10579,
      "적대": 10580,
      "스타트업": 10581,
      "발음": 10582,
      "아티": 10583,
      "처한": 10584,
      "지우": 10585,
      "##방울": 10586,
      "스틸": 10587,
      "여학생": 10588,
      "양육": 10589,
      "전진": 10590,
      "##운다": 10591,
      "##버리": 10592,
      "서른": 10593,
[...]
